  t
  a
h e
i n
r e
 t he
o n
e r
  s
  w
a t
  o
e n
  c
i t
i s
a n
o r
  b
e s
e d
  f
in g
  p
o u
 a n
a l
 t o
a r
  m
  in
 o f
  h
  d
a s
â 
i c
 an d
 t h
l e
o m
i on
l l
en t
  n
  l
  re
s t
v e
  e
l y
 b e
  g
r o
i d
a c
u t
o t
  T
  I
 th at
  on
a y
  S
  is
a m
i m
e t
a d
o w
i g
s e
 f or
â 
  A
v er
l d
u r
c t
  C
  u
 s t
  y
  it
  he
i r
at ion
it h
 w h
  M
c e
t er
o l
 w e
i l
 w ith
 a s
  B
c h
i ll
n d
 w as
er s
  P
 y ou
k e
  â
 c on
 d e
  r
i f
he r
at e
 a t
a g
  W
 h a
 s e
  H
o re
u l
 p ro
p p
m ent
  1
  D
 a re
r i
es t
u s
is t
  R
 c om
an d
a in
o p
  2
 T he
ig h
  (
t h
r om
o d
 n e
  F
u m
u n
 e x
â 
a b
re s
  N
 n ot
  v
es s
 ha ve
ou ld
it y
e m
 o r
or t
 b y
o s
an t
  G
 f rom
i ve
 a l
' s
 s u
e l
ar t
o c
  L
 s h
 th is
n t
q u
igh t
u st
0 0
p e
  le
i es
en d
 c h
 s a
ou t
  E
T he
 a b
i e
ac k
al l
 â 
re d
  J
 h as
 p l
al ly
 g o
ar d
a p
e ar
 h is
i v
om e
g h
o st
as t
ou r
  O
 t r
  j
a k
 w or
u d
 the y
 d o
 b ut
 sa id
g e
 c an
 w ill
r ou
 w he
  U
  k
o k
ic h
 a ll
 wh o
id e
  "
am e
 in t
t her
an s
 o ut
 the ir
f f
i al
e ct
on g
p l
ic e
u re
p t
 m ore
ag e
ion s
ou s
i ke
on e
ac t
 m e
 u p
in e
 a d
 ab out
r a
im e
at ed
 we re
 on e
b er
o g
 u s
 s o
e p
 h ad
u b
a re
i a
c c
u e
 2 0
  K
 c l
 w ould
  im
in d
i z
 a g
 wh ich
a ke
ver y
 t e
 con t
 u n
 of f
 be en
 com p
 S t
s o
a u
 y ear
p er
 T h
  en
ig n
e w
i p
ar y
ac e
 l ike
o ok
v en
e re
ay s
 m an
 in c
r y
 p e
o se
ab le
it e
 re s
 p er
or d
as s
 s p
m er
 o ther
 I n
 s ome
i le
i re
 20 1
i b
op le
en ce
ic al
 ne w
 the re
 o ver
ation s
k s
ul t
 d is
res s
 al so
ow n
 th an
 a r
ou gh
 be c
in t
 the m
an ce
a il
p ort
 whe n
 a pp
on d
ou nt
r u
 you r
re e
 p art
 pe ople
 wh at
  qu
f ter
or m
 s c
a v
 C h
  Y
 j ust
as e
 an y
 k n
  3
 it s
 t ime
ac h
 he r
 I t
  V
re at
  if
 m y
en s
 re c
ic k
 g et
ve l
. â
 int o
ou nd
ir st
 t w
 n o
i an
 wor k
ct ion
d u
  -
ing s
or y
l ic
 pl ay
 o ur
it ion
id ent
or s
 p re
o b
an g
o ve
in k
ad e
is h
au se
w n
it t
ar k
at es
am p
 s he
  ro
, â
 c o
ver s
 p ol
 f irst
 a fter
 h ow
 c ould
n e
i ous
nd er
 a cc
 H e
i ld
' t
 1 9
 h im
 p o
a w
on s
 at t
he d
 f e
 on ly
 p r
ic t
 tw o
h ing
w e
â 
o v
 s er
 s pe
f orm
 com m
. "
 b l
 be t
 a ct
n ing
 de c
 b ack
f t
t e
c es
 m ost
o y
o od
  4
 a m
 d id
c k
 ag ain
if f
rou gh
rou nd
at er
 u nder
 w ant
d ay
u al
 â 
is e
 â 
r it
 year s
se l
u ll
. .
ent s
 d es
 bec ause
 n ow
, "
ter n
 e ven
 con s
l ud
 kn ow
ub lic
is s
 in v
 ne ed
e c
m an
o ld
 se c
 se e
 ad d
 in d
 W e
ment s
 e very
c ed
  $
f ore
u ch
  5
ur n
 m ake
 su pp
 U n
 e m
pe ct
 the se
o ll
j ect
oc k
 whe re
 l ook
ation al
um p
I n
as on
 b u
ver n
ie w
 d on
 w ay
x t
 r ight
 A nd
i ly
 be ing
T h
n g
 e v
l es
 m ay
at ing
os s
 T r
 d iff
 man y
 re l
 re m
 the n
ro w
le ct
 de f
as ed
 c all
at h
 th ink
i ed
 B ut
mer ic
ak ing
  [
it ed
 l ast
 inc lud
on t
 im p
 s ay
 th rough
 sh ould
 th ose
ow er
if ic
ot her
) .
ur ing
 re g
 f l
  very
e ll
 p res
ri b
 s y
 m uch
ar g
it ies
 b r
 sh ow
 st ate
t ing
s s
he n
 Th is
 be l
v ed
 p h
t y
 we ll
at ive
ic s
an ge
 W h
  end
 do es
u nd
 o wn
 d own
 as s
al s
 2 00
c om
ter s
ar ly
ot h
 c ount
 m on
 A meric
 u se
in ce
w ard
om et
 be fore
 l ong
 te am
u p
 st art
g r
 N ew
u es
 go vern
 re port
  ke
ib le
ol og
en er
er t
if e
 m ade
re n
b le
 f in
- -
ou n
i x
I t
 s m
 wor ld
 su ch
 g ame
ers on
 go ing
) ,
 su b
00 0
 go od
f ul
 he l
is m
e k
 a c
 again st
  6
il ity
or k
u ally
 g u
 po int
 s ur
 st ud
 e ff
t s
y s
g an
  ent
it s
ist s
i er
 st ill
 s et
ar s
a x
we en
 le ad
 hel p
 g r
im es
rou p
 s ays
v ing
 c ol
 m in
e f
st em
 o b
â 
i o
 wh ile
al k
m s
ill ion
 pro du
sel f
an k
 s im
 th ough
 bet ween
c y
 t ake
 s ame
c ess
a h
 diff ere
oll ow
 n um
 st r
u res
am es
 con f
 h igh
 in ter
ar ch
e ver
 c r
 o p
a ir
 in st
us s
 s ign
 R e
at ch
 off ic
o ol
l ed
 l aw
h ip
 dis c
c ent
g g
n er
 pro v
w ay
 in s
 re t
re ad
he s
an y
vel op
 govern ment
 s omet
  ed
l and
ut ion
 m ed
W e
 th ree
 re f
e e
 t er
 tr ans
 f ound
ou se
 r un
 a round
 he re
 1 0
 re al
 A l
 us ed
o ot
 m em
at her
 Y ou
a ve
iv es
a z
al e
c on
 ex p
 sy stem
al th
et s
 s l
c i
 g roup
ce pt
 A r
  7
 re ally
v es
 supp ort
 c our
en se
 Tr ump
 h and
in s
 g reat
p h
 w om
 m od
 p ublic
 f am
y ing
 spe c
 ex t
 c ap
 c ur
 c ar
er n
 re ad
 The y
 f act
p r
is ion
 C l
t on
 f ind
 d ay
o h
 ex per
 f r
 ha pp
ul ar
a j
 b oth
 mon th
ire ct
 d uring
 C om
 d et
in es
 re p
ic es
 I s
 S h
 to ld
 de velop
ut h
 b ig
e red
 f ollow
t he
 A s
 is s
 c re
e x
 p erson
i vers
m in
 s ince
 c ent
ord ing
 w ar
ak es
  0
 we ek
a red
r ic
ag es
  8
 f ew
ic ally
 pol it
 bel ie
m ed
. [
 L e
 le g
 g ener
as h
an c
 ex pl
 l ot
b ers
 cont in
ent ion
n ess
 pro t
g et
i et
 to o
d er
 p ut
re nt
 s oc
or n
 I f
W h
 re qu
 o pp
 an other
  9
 res p
 somet hing
iz ed
 differe nt
ch ool
at t
 c le
 in f
 p ass
 l oc
 sec ond
at a
 l ife
 pl an
v iew
 m et
 D e
 inv est
od y
 f ar
 f il
ro ss
 he ad
 ch ild
 ch ar
in ess
th ing
i ence
 c he
 comm un
ere st
i k
 re le
 p ower
 ne ver
 th ings
 b us
ar l
 p oss
iz e
 c amp
 b o
ie ld
u c
 de p
ut e
re t
ant s
 m ight
 ad v
i ent
 as k
 g ot
 e ach
 qu est
 â 
 v ot
Th is
 ar t
 b est
 ne xt
 F or
 m ark
c l
 F r
 de m
 all ow
 c or
 com e
2 0
  '
 Th at
 S e
 se em
itt le
 fe el
n ce
 per cent
 A n
 w r
it al
s on
t en
 inc re
 p ost
r at
p le
u g
 h ome
  .
 a v
 d ist
 op en
er v
 c are
gr am
i red
 U S
 cont ro
l ess
 p ri
 h ard
ch n
 R ep
os ed
 res ult
 P ro
 se ason
r al
 d irect
_ _
 B l
ate ly
 h um
 pl ace
g y
 num ber
 bu ild
 with out
 f our
 in form
 includ ing
c o
 to p
am a
 m illion
con om
 im port
 comp le
  ide
ri end
 rec ent
a im
l ine
ab ly
 pro ble
 t ri
 le t
 count ry
w ays
is hed
B ut
 st and
 e l
ar n
 bet ter
ain ed
 g l
e ad
 int erest
t t
r ation
 l ess
one y
r act
 m ov
l ing
 I nd
 part ic
 att ack
 l ittle
 b ro
a pp
 app ro
 be h
 m il
 call ed
 did n
 t urn
 re st
 d r
 c ase
is ed
ain s
od e
 p op
 m ove
re m
 eff ect
 p ay
aj or
  Z
 f ull
in a
 ke ep
 le ft
 pre v
 an n
 ser v
 new s
en cy
 con c
1 0
 pro gram
u ro
an n
 The re
er ing
at ure
 - -
 1 2
 t est
in al
 m ain
le g
 us ing
olog y
 w in
 for m
H e
 p os
 v al
 Americ an
 le vel
 f un
b e
ot t
 s chool
 e conom
ert ain
iv ing
 S o
 pol ice
ar ge
 wom en
in ed
pl oy
i ver
  =
' re
 l ist
 b ook
 sm all
 e as
u ck
read y
 d ata
 Un ited
 P h
r ap
oh n
us ed
 h ist
  Q
 re ce
 cur rent
 he alth
ir d
id ed
or th
 pro cess
/ /
 b re
 ch ange
 comp any
 pres ident
 1 8
 te chn
g er
re en
ru ct
 bus iness
r on
 al ways
 wh y
 s ol
i ans
 m at
 th ing
 p ast
 H ow
 al ready
ain ing
 ab le
 p rom
ard s
st and
w it
 l ater
 pro ject
 re se
 or gan
 ch ang
a ign
 pro f
 u nt
as es
 st ory
 d ri
 j ob
a ff
 ex pect
 O b
 B e
 cl ass
 m ajor
ou th
 a way
 cl aim
ur s
 S he
 offic ial
 m oney
amp le
ur al
 f ree
 t y
 v is
 t alk
u red
 inform ation
iv en
ur y
 c ost
he re
 p at
 e le
 des ign
ivers ity
s ide
 o ld
pt ion
 v iew
ac y
 k ill
t o
 c ity
 st re
le y
 does n
 import ant
 le ast
end ing
 m ar
s c
 a ff
 happ en
 c ame
 m en
  est
5 0
r ist
 camp aign
 A d
el s
 d ays
uth or
 o per
 m ust
id es
al f
ur ity
cc ess
res ident
 g row
 s k
ne y
 fam ily
 h op
 f riend
er al
 t ax
t ed
 rec ord
 m aking
 te ll
 en ough
iss ion
S t
i or
 M ar
 v ar
 k ind
.. .
 S p
 con st
id er
 e lect
is ing
 v ide
 s it
al ity
 G o
 l arge
pp ed
o ad
are nt
b s
us h
 pol ic
 to ok
 n ame
 de al
if ied
u ed
 J ohn
au gh
 polit ical
 Rep ublic
  es
o x
 a ir
r or
iv ed
1 9
 ed it
w ork
 unt il
A s
 de l
an e
en n
b y
  ve
oc rat
 g ames
ion al
 work ing
I f
 l ine
â ¦
i ol
 bec ome
 C an
 acc ording
 de b
ri es
 me an
E R
is ter
 for mer
 e ver
on y
 S c
em ber
 D em
ap s
 act ually
 ret urn
at or
 of ten
 b as
 w on
is on
i qu
y ear
 in tern
 hum an
 P l
 t imes
iz ation
 M c
 f und
 g ive
m ost
w are
 f ore
en g
 play ers
ar ing
 A ll
 s ing
ic le
 se ver
w h
ro p
it her
s h
 Com m
 or der
 R uss
g in
 wor d
 med ia
ag ue
i um
 se en
b all
 do ing
ut ure
f or
 char ac
 b it
 M ay
-- --
 A t
The re
ra ft
 l a
 de v
 soc ial
 app ear
 mark et
 n ight
 you ng
o int
 child ren
 c rit
  ,
 contro l
 ha ving
 r a
 P resident
 e arly
 f ac
c hed
 su re
id d
 w ent
 per form
 f ive
or ies
 sever al
 to day
i am
ak en
 Y ork
 O r
i ber
ious ly
b r
 S y
 C on
 p ress
 ev ent
and s
 1 5
le t
 ar g
 E uro
 av ail
 St ates
 p ot
1 1
 o cc
 su ccess
 pro p
ver t
 whe ther
un e
 ex ample
 19 9
art ment
id ence
 al ong
 quest ion
at s
 N o
 like ly
u ff
 mil it
in c
 e qu
 inv ol
 month s
 w ater
 mem bers
m ber
st er
ot s
 b en
 se x
 sh ort
 f ight
 with in
  vers
 f ail
 d one
 c ertain
 am ong
A nd
 h our
 me et
em pt
 on ce
iv id
i ally
 B r
b ack
ub l
 an t
 under stand
 C ol
ort un
 though t
 s ide
 des c
it ing
ur ch
 me ans
n ect
l f
 pri v
 f uture
 ac ross
 en g
 v iol
 loc al
ent ial
 cour se
gg est
 produ ct
 1 1
re w
  #
 invest ig
on es
 h old
ul ation
l er
ver age
end ed
 ch o
 Ob ama
 kn own
 M r
 re ason
g ress
our n
im ate
 w rit
  &
m y
 O n
 act iv
b ook
 poss ible
 prot ect
 St ate
 su ggest
it ive
 avail able
 proble m
ã 
oc i
 W hen
 n on
ag ed
 commun ity
 y et
 ask ed
 l ight
 H ouse
 vide o
 201 6
 or ig
 m akes
 a uthor
al d
ar m
 c reat
 get ting
 c ut
ens ive
 belie ve
 con d
n ot
ed eral
 pro b
 g iven
 Euro pe
 3 0
 report ed
ur ther
 other s
o ber
it ions
iet y
 Ch rist
 n et
 l and
 c a
en e
 C ent
or ld
Y ou
 C o
as hing
 F l
 m us
  i
u ly
p or
 ann oun
 T e
 str ong
  ]
 de ath
an ces
 l im
 n ational
ir on
1 2
 Dem ocrat
 start ed
 201 4
 ag o
  X
  ident
 s ent
as ter
ore d
re st
 h alf
 A m
' ve
 em ploy
 201 5
 iss ue
 p ar
 m om
 h ig
 cl ose
 tr ying
3 0
 acc ess
 follow ing
her s
 Un iversity
 l ove
 hist ory
 part y
A T
ort s
il ar
 b ased
 sa f
 com es
 S en
 Americ a
. ,
 s our
 M in
F or
in ation
sel ves
 al most
 f oc
â 
 ser ies
 ind ust
 l ow
res ent
ivid ual
u ment
 to get
 toget her
 ide a
u se
ab ility
ition al
 look ing
 1 6
  Â
 acc ount
og rap
 s ix
 O ne
ut es
o f
th ough
re am
 add ed
al es
 exper ience
r ict
 is n
 imp ro
 any thing
ere nce
ail s
e v
ie f
ot e
 say ing
r ing
ust om
 cle ar
i en
wit ter
ap er
I N
e b
  er
 tr ad
 m or
re ed
un ch
p ro
 A f
ir c
 f av
g ed
 P r
s y
 an al
c er
a id
 are a
 r ul
 pr act
min ist
1 5
 comple te
  /
 1 4
ro wn
 m iss
 ph ot
 Wh at
 f ace
' m
 l ive
 pres ent
r is
 ne ar
 cour t
a f
 E x
pl ay
ra w
 E ng
 ind ividual
 comp et
 v ict
 fil m
 b ill
 c ult
ow s
 Can ad
 sing le
ward s
 r is
 t aken
os p
ru g
 th reat
 bl ack
 H ar
 m ind
g o
 b ad
 tr y
a i
 r ather
 ent ire
 m ult
 P ol
 a ut
 C ity
 col le
ci ally
 pro per
 W ar
 beh ind
  z
 1 7
 milit ary
 want ed
er man
u ge
 B rit
 p ubl
O n
 conc ern
Wh at
id s
 stud y
 I m
 qu ick
int on
 N orth
at ors
 to t
 s um
 C al
p ar
 re du
 disc uss
at ic
n es
o ff
 sec urity
 f all
 D on
O N
 G r
ra el
 play er
 m ess
 spec ial
 polic y
 f oot
A n
 S ec
 point s
 pre t
 br ing
el t
ar ter
 rese arch
W hen
 1 3
 prob ably
 att empt
 T o
 com b
ashing ton
p ly
ll ing
 p ick
 D ep
 comp an
 h ouse
c hes
ro te
 some one
l ish
 t aking
 ke y
 c ou
ic ult
R E
ir l
 f ield
 M an
1 6
 w a
 ben ef
rem e
o ver
 im m
A N
 A ust
 b ody
tt p
if y
 t arg
 con nect
 con v
 sim ilar
 not hing
 c oun
 fr ont
d d
 com ing
 right s
c ing
v iron
 me as
 f ood
 j o
 sign ific
m ing
. )
S o
 f urther
 el se
 desc rib
 W orld
 sp ace
 s w
 N ational
 l ab
 e y
I S
 e ither
 le arn
 ex ist
 serv ice
ri ed
y n
ã 
am ed
 w rote
 dec ision
 how ever
ar th
w w
a ult
ac es
 be gin
ull y
an a
 w atch
as ing
itt ed
 re pl
 cre ate
Th at
he ad
 201 3
un g
 th ird
 W ith
 who le
 iss ues
ive ly
: //
 en er
  |
 W ashington
 rel ations
 s us
  +
 h it
1 4
ol ution
 en c
 ch all
 rele ased
 fe at
 lead ers
o on
 m ass
 st ep
 com pl
 ro om
pp ing
ro du
 tr a
 compan ies
 G u
 seem s
 d oc
 st op
 Cl inton
 2 5
 D av
ent ly
p ite
 d ue
 o pt
a ul
 d am
a pe
l am
  :
 c ustom
 f ederal
 c and
 f ire
 f ig
 su per
 Is rael
 every thing
 out side
 be gan
 J an
 d ou
 In st
 fin al
 How ever
 charac ter
r an
n ow
am er
 bre ak
 develop ment
 in it
 se lf
um b
re g
e al
 am ount
arl ier
 mat ter
s w
 B ar
ad es
 P art
m b
 it self
 pos ition
 t re
 gener al
 st ri
 g un
ib ility
 S outh
 G e
le ment
 t reat
 contin ue
pe cially
an ks
iv il
 st ates
end er
 M ed
__ __
l u
 ex ec
A R
u ation
 s ound
id ay
 state ment
 bec ame
 201 2
ograp h
 him self
l im
 ro le
il i
att le
 ne g
 In tern
 st at
 stud ents
se c
er y
 S u
 official s
 201 7
 was n
viron ment
 them selves
 off ice
il t
 b all
 in j
l ike
â 
ace book
 prov ide
 wom an
 ag ree
 a ction
C h
og n
 l arg
 signific ant
 run ning
ob al
B C
 diff icult
 spec ific
 prof ess
 hour s
 play ed
 de ep
 cap t
 ph ys
 build ing
 ad minist
1 8
ac ed
 g round
 l at
 tr ue
ir t
 sim ply
 inter view
 play ing
 c op
 ch arg
 rep resent
 1 00
 d om
1 3
 J ust
 sa w
 ab ove
ourn al
 comm on
b ody
r ight
 bel ow
 A pp
 E d
 a p
 m ag
 count ries
' ll
o id
idd le
 R es
 ener gy
 ev idence
at ur
as k
e ks
ang u
 d rug
 s ense
 show s
 resp ons
 group s
iqu e
 friend s
i od
 re d
 wh ite
 pret ty
 need s
t ime
 l ost
 ex c
 every one
Ã ©
 A b
 5 0
 tr ack
 A ss
 t em
i j
 d est
 vers ion
 ty p
 Ch ina
 b ar
 add ress
 H is
 M us
if t
  )
s er
 val ue
ac hed
1 7
 recent ly
 need ed
 p ain
 r ad
y le
 for ward
 C ar
 19 8
 W est
 chang es
 cand id
 mus ic
 h om
 d i
 rele ase
og le
 e p
om m
cc ording
 includ e
 g en
 al leg
rib ut
o ke
 qu ite
 l ate
is c
 t it
 indust ry
 ele ction
ist ic
 c irc
n ed
 m ot
 on line
 Wh ite
 inst ead
 A fter
 G erman
 s ite
or ing
 we eks
ar c
S T
ep end
 det er
 an im
 mom ent
os ing
 ac cept
ent al
 h ost
 j ud
 leg al
ight s
 sh oot
m e
 opp ortun
e ed
 vot e
 T witter
itt ing
i ents
 ab s
 p le
A l
 es pecially
w here
 wr ong
 rel ig
 p arent
 go al
H ow
 p ie
b o
 su ff
 dec l
iv al
 we bs
 M y
 N ot
 so on
ap t
e le
 2 4
 ob ject
 p red
 C ong
 econom ic
 long er
 Republic an
 hig her
med i
 hop e
 bl ock
ul arly
ag er
 ed uc
e es
 W ill
 he ld
h am
 w alk
o e
 per iod
* *
 A ug
ir m
 D r
 b illion
 foc us
op h
The y
 techn ology
 cons um
 New s
as ons
 re view
l t
 c ode
 law s
ri pt
 Se pt
 wor ks
 st ay
 sh are
c ial
 Dep artment
 O ct
on se
 targ et
r ay
 M ich
 che ck
id ing
 The se
 cons ider
 l o
 M arch
du ct
h od
 l ed
 st ru
 person al
ur d
c le
 h y
ove red
o le
 re ve
 result s
 any one
 v ol
 Aust ral
 St e
 a ge
ud e
 de ad
 word s
 min utes
 so ld
 pot ential
 d en
c il
 e arlier
 cont ract
 w ind
ke y
her n
A d
re l
 fav or
 b ase
ate g
 tot al
 J uly
 serv ices
 S m
 r ate
 app lic
pr il
ã 
 pr im
 ris k
  Ð
al t
 ne cess
ag ing
act ion
 J une
he l
 for ce
il ities
 pop ular
 imp act
 F acebook
 sc ient
u ary
is l
 E n
 art icle
h aps
 spe ak
 re v
A S
 M ond
ang er
our t
 w ays
 cre ated
 R ed
it er
end s
  <
u el
 a ud
ic ro
 sur pr
f ect
 proble ms
 G od
a ut
 201 1
 can not
E N
 ant i
f er
 up d
 res pect
 expect ed
 co ll
 M e
 sh ot
 an sw
it ution
 quest ions
2 5
ip le
 cl ub
 P e
P h
 priv ate
ap an
 incre ase
 exp ress
 invol ved
 Cong ress
v al
pl es
itt en
 c red
it iz
 rece ived
re et
 fun ction
 eas y
 Sy ri
anc ial
 en vironment
 com ment
ot o
c ast
ct or
 cont ent
 sub ject
 comp ut
 m ater
av ing
 l angu
am s
 H ill
 p ort
 Mond ay
O R
 pr ice
ur g
 announ ced
 p ack
 t ou
 relations hip
c he
 us ers
 ex act
 bro ad
at ives
 he art
 st aff
 D o
 c ivil
p ut
 s en
 ne arly
itt ee
 S an
 resp onse
 orig inal
 Cal if
u le
 exec ut
 report s
ll ed
at ural
 l iving
 c ases
 Fr iday
 C ount
le x
i res
 A pril
 ar rest
it es
 m other
ip s
ues day
 c al
op s
 p ur
h ood
on st
 col lect
 ins ide
 o il
ok es
 ter ms
 work ed
est s
 W ed
 st ore
 T V
 bec om
 n ation
 P al
 ty pe
 d iv
  {
m on
 s qu
m p
a el
A t
rough t
 resp ond
et er
ell ig
 f ans
 g irl
6 0
 r ound
ough t
 a verage
 N ow
or g
 im medi
 19 7
 so ft
 team s
 l ack
om b
 S und
 Russ ia
 publ ished
j oy
 intern ational
 kill ed
 t akes
" .
o or
b it
 wor th
e xt
 Americ ans
iz ing
 T uesday
 4 0
 est ab
ist an
ct ions
T o
 201 0
 net work
 Is lam
 ter ror
 Af ric
 work ers
 ab ility
 def in
nes day
 ch ance
 g ave
 c y
 ass oci
 ar ri
vert ise
n a
 Wh ile
 ad m
 Brit ish
 A ng
 Go ogle
 direct or
 care er
 c ell
 who se
 m id
 dec ided
 le ave
r ain
is es
 num bers
orn ia
ic ated
ov ed
 we ap
 f em
 happen ed
olog ical
cl us
 e mer
n ers
 bu y
b ased
 cap ital
 J apan
 aff ect
k y
 mod el
 sour ce
a ily
 e t
  @
 go es
 ro ad
 N ove
un t
 l ives
 S ome
 A ct
O ne
 l og
 O ff
 inf lu
 turn ed
 P er
 t al
 pl ans
 m atch
b l
a ur
 current ly
en ed
 rec ogn
 gl obal
 st e
urs day
 appro ach
 Wed nesday
 ph one
 mater ial
 requ ire
 2 2
os ition
 fore ign
 B y
 Dav id
 Sept ember
 E l
 off er
 sit uation
 administ ration
 th ous
 ev ents
ord er
 A g
 m is
 C or
b or
f ully
 S ch
 reg ard
e g
ill s
 int rodu
 Jan uary
 B ro
 cou ple
es e
ou d
 h on
in o
 G l
 l ower
 tr ade
o o
e ch
 P aul
 Aug ust
 l oss
 C ourt
 f elt
 p ict
um e
s et
 b oy
 impro ve
 mem ber
  ill
 2 1
le v
 met hod
 b ank
 h uge
 re pe
 p ull
 webs ite
 r ace
 to ol
A C
 f ather
 Sund ay
 Calif ornia
 sec ret
 st ruct
 f re
l oad
 p age
re ct
 quick ly
 leg isl
en ing
 w ide
 sim ple
 meet ing
 he ard
 perform ance
et y
 kn ew
 Th ursday
or ters
es tern
 fin ancial
 F eb
 d ig
 tra vel
 move ment
ru ction
 are as
 tri ed
 v ia
 te xt
 Nove mber
 co ver
â .
 p ers
4 0
 n orm
sy ch
 or d
---- ----
us es
 re ach
 to wn
 beh av
m a
at ory
 econom y
g ing
ak er
 reve al
 po ll
 Cent er
 en joy
g est
 produ ction
S h
 bu ilt
 hand s
 allow ed
 partic ip
 includ ed
ific ation
ch ie
l in
 f ear
) ;
 se par
 bo ard
 want s
' d
d own
 vict im
 fe ll
ict ion
 partic ular
 2 3
 em ail
 vis it
 b rought
for ce
 h ttp
 prev ious
 Bl ack
f ace
 P ost
 c ause
ur ning
 mor ning
u k
ce ed
A fter
 s ize
 att ention
" ,
ra z
 h ot
ide red
 st ar
W ith
 sp ent
 ve h
 lat est
 Sen ate
 en s
av y
 p aper
 m ention
 Oct ober
? â
 per fect
ur b
 for ces
E S
9 9
ess ion
 S w
 Q u
 Canad a
i ant
 ne igh
 eng ine
u f
 tr aining
Ð ¾
I T
und red
ib ly
Wh ile
 dem and
 T ex
en ces
 200 8
 pop ulation
ar ily
st on
il le
age ment
all ed
 l ink
 look s
 lead er
i ers
 J ew
f l
ond on
led ge
 P ar
ce mber
atur day
 level s
 r ac
 Russ ian
se qu
 b i
 w ond
y ond
he t
h old
 P ark
 pro gress
ic les
et t
 c itiz
 ind epend
 ex am
 Europe an
 get s
 f air
 var ious
 grow th
p s
 f ast
 bo x
 T imes
 co ach
 Ind ia
A L
 cont act
 talk ing
 v o
 C ont
 Part y
2 00
ec ause
ar ies
r im
 b ud
 cons idered
  }
 H er
 se arch
ident s
 stru gg
 s ort
 do ll
 Le ague
 Count y
 med ical
 u nd
 im age
.. ..
op e
in ks
 investig ation
 h or
 add ition
u it
g round
E D
 parent s
 langu age
 set t
 I S
 s ens
 rul es
T r
v ent
ic o
p ir
 pr ison
an i
 r ange
w o
at form
 spe ed
  ess
 I ran
 re b
f ield
 St reet
n y
ys is
 con duct
u ments
ellig ence
om p
 crit ic
 K ore
ra q
c ome
ig r
un k
ap h
e ared
 feat ures
 s on
z z
et h
 wr itten
id ge
I C
 ser ious
 sl ow
 P at
 incre asing
 b ott
ve y
 M ark
am ing
 l iber
 S aturday
 De cember
 st uff
 sex ual
 a chie
ic ation
 Mus lim
in ing
 soc iety
 2 8
z e
 ext reme
 pre p
 attack s
 se ven
l ight
 mod ern
c ies
 s ong
 job s
 up on
 e ight
 doc ument
im ately
 prev ent
is ions
 m iddle
 sp okes
Ð µ
 L ondon
 he ar
 gu y
 M ore
 j ournal
vertise ment
id a
 system s
 see k
 U K
ab or
 partic ularly
 st ories
F L
 dou b
I m
 c ard
ur t
ren ch
 h ous
 d raw
 ter m
 des pite
 opportun ity
 ext ra
 in n
er c
om an
 mess age
 I raq
an ced
 d ro
 requ ired
ru ary
 ob v
O P
ent ially
 m ach
 def ense
 big gest
 sum mer
ro om
e ff
 res our
Â ­
 s n
 bl ood
 pri or
 reg ul
 2 6
 major ity
 cost s
at ter
 c ross
ic ks
 eff ort
 viol ence
 Don ald
 complete ly
am ent
 product s
 p en
it ch
 qu arter
ill ed
 t able
 car ry
 im ag
 Mc C
 h undred
 n atural
 are n
 a w
 sur v
 cult ure
 d ied
ag o
ak ers
av es
 E m
n ces
 E ast
r ast
 rem ain
 occ ur
 interest ing
as c
S he
le ar
ish ing
 read ing
 u lt
b ed
 hist or
 look ed
 g as
 N et
  ...
 m ob
reed om
ly ing
 certain ly
 con vers
 show ed
 describ ed
 r out
 offic ers
 M or
 lead ing
 answ er
 2 7
 on es
 exact ly
 reg ion
 claim s
 p aid
f ord
 l ay
augh t
ad d
 incre ased
in ally
al y
 ex cept
 fin ally
 I nt
 qu ality
 somet imes
 J ack
u ing
 cons erv
 chang ed
2 2
 cl imate
 foot ball
 contin ued
os es
ut ions
 c amer
 Republic ans
ens ion
 start ing
 pract ice
 C he
 sc ience
 educ ation
 S pe
 cr im
 Tex as
 exper ien
 C oun
ous ly
t r
 n amed
 S and
 writ ing
 com ments
or ge
osp ital
 wr ite
ib r
en ge
 grow ing
 g iving
 K e
 Ind ian
 would n
 stand ard
y l
 ass ist
 t ro
 rem ains
 po or
 S oc
H E
 200 9
 us er
 sc reen
 Â £
 fail ed
ar i
ines e
 C ons
 prov ided
  *
ar r
 part s
port s
 p ath
 d anger
ou l
us ing
 p urch
 think ing
 requ est
 mult iple
N o
 B ill
im ent
 mov ie
 J ames
 ch ief
t ain
 dem onst
 un f
A M
 pl atform
 effect s
in ary
 â ¦
 gu ys
 E ven
 le ague
] [
ab les
 Democrat ic
 Eng lish
 pur p
 Feb ruary
op er
co in
 k ids
 dam age
 ro b
 al one
g es
 cent er
m it
 ( @
 c ele
 br ain
 could n
 real ity
 through out
ener al
 det ails
 b an
 K ing
ar a
 al though
f ort
2 3
 thous ands
 M on
ur ance
 rese arc
 direct ly
 p an
 vot ers
 f ile
 includ es
 cons ist
am b
row d
 Mich ael
 book s
 to wards
 tou ch
 D es
O T
 saf e
2 4
 add itional
 sub st
r s
 read y
 f ix
 be yond
pp er
it ness
 us ually
 a head
 S erv
it ute
 pass ed
 per haps
B I
â  
 d ate
amp ions
 imp lement
 immedi ately
 eff orts
h a
 s we
 ep is
 av oid
 m ill
 d ark
h ib
ad em
 coun ter
 con cept
 rem ember
 it em
 rec omm
 deb ate
 call s
  il
 to ward
 e arn
 tit le
 sc ore
ast ic
an ch
 se lect
 pie ce
C l
w ise
 let ter
 s at
 se ll
 saf ety
 g one
 cle an
 Democrat s
 cho ice
  ver
 s le
 mean ing
ci ent
 o ption
ra ight
 begin ning
 sc ene
 rel ative
N ow
O S
ic ations
e gr
 re asons
 c ast
ru pt
 op in
 cond itions
ress ion
 appear s
Ð °
ri ef
A ll
 help ed
 la unch
 ag ency
 Min ister
 p sych
 dis app
ac hes
 Ch inese
in ated
 design ed
he st
 do g
 differe nce
ate ver
 w ife
 t en
 rece ive
 S er
  x
ro y
 G reen
 cent ury
 th row
= =
A D
 offic er
 col or
 colle ge
 mov ed
 6 0
o es
 R ober
 Ass oci
 proper ty
 dis e
 fig ure
 chall eng
 Will iam
ir th
m en
 de g
ri age
 spe ech
om en
 phys ical
  ign
uc lear
il ies
 F irst
 N e
 press ure
 cl os
 B o
 D ay
 a im
  ut
 comp ared
 may be
 sus pect
 s il
 cop y
ub e
d e
 cor por
im um
ber g
s p
iv ity
u x
B y
 s al
 comple x
 O f
 The n
 R ich
 2 9
 T ur
 M ex
ic ient
ar ian
 soft ware
 inc ome
 stud ent
n ew
A P
 n ature
augh ter
air s
 ey es
 my self
il es
 enc our
ven ue
? "
 sm art
I s
it or
 alleg ed
 ar ch
 dev ice
 ro ck
 f an
8 0
i able
 necess ary
uf act
 happ y
U S
 p ark
ol ute
 charac ters
 organ ization
  â
 co ol
 mov ing
 larg est
 Pl ay
 follow ed
 est im
 polit ics
 act ions
M y
ock ed
 power ful
j ust
 pre m
ag on
 me ant
R e
 V al
w ood
 treat ment
 sp ending
 we b
 a ware
res h
 w all
 bl og
er o
 anal ysis
 M art
 t our
 fe ed
ir ing
ar ning
 pos itive
ch an
 n om
 citiz ens
 sh own
 dis play
 sc he
 es c
y an
 candid ate
 your self
 tw e
ent y
 lim ited
 st age
ot a
 I I
 bud get
os h
er ve
 s ales
Ad vertisement
m ore
 y es
 pre c
 school s
 b and
 char ge
 comput er
ut y
in n
it ation
 F rench
or ks
 cont ribut
 c rowd
 d raft
 ref er
 m ix
 Ang el
 for ced
 conf erence
or ney
or ter
 meas ure
ig ration
 dri ve
 b al
 event ually
 eas ily
 S im
 president ial
 cor rect
p re
 T or
 over all
 st raight
k en
 relig ious
in y
 Su per
 app eared
 tr uth
 not e
 W ind
 J er
 H ere
A ccording
ch ange
 c at
 p us
 aut om
 conf ir
 allow s
 fam ilies
 execut ive
N ew
 Austral ia
 r ap
 an g
 un ique
 exp and
 custom ers
 v irt
 individual s
 dis p
 stre ng
 cr ime
 fe ature
 Sm ith
 cr is
 il leg
 det ail
 b attle
ress ed
 B en
 A ir
b um
) :
B e
 fre qu
 dec ades
 em b
 d rop
 develop ed
 comm and
 f irm
 L a
 att ract
00 00
 seem ed
 adv ant
 chall enge
 contin ues
 sign ed
v ille
r ated
 pred ict
 bro ther
 Syri a
4 5
 l if
U n
 r ates
 gr ad
 know s
c raft
 l ines
 App le
 Coun cil
 Intern ational
ol ic
 benef its
ain t
I A
 r are
 success ful
e an
 ke pt
 Pol ice
2 7
 n ice
 cent ral
 know ledge
le ase
 Com p
 st o
 h ar
 app arent
 re ached
 go als
 re form
2 6
 19 6
 prom ot
S ome
 Intern et
 man ager
 l ic
 E arth
 anal y
 sp ot
eng th
 g ives
 us es
a res
 m ist
D on
b and
 prev iously
 ind ic
k i
E T
 tr ust
 min or
3 5
 not ed
 Christ ian
n own
 v ac
ite ly
 high ly
wh ile
 man ufact
 fe et
 ide as
 c ities
ter m
 stud ies
ad o
 sus p
 full y
n et
 do or
 U p
 St ar
ant ly
 shoot ing
 ref lect
 be aut
 B el
ic ago
ot i
 F rom
 project s
 Fl or
 organ iz
 em ot
i ance
iver se
 sen ior
 inc ident
p art
 C up
 Go vern
w ide
 program s
 call ing
 M ac
 ra ised
se y
 weap ons
B A
 al tern
 larg er
 great er
bo ard
 sa ve
 pe ace
 favor ite
 T om
 go ld
m ar
A r
on ents
 n uclear
 rel ated
 Fr anc
 ca used
on ent
 S chool
ound s
____ ____
 pl aces
a ith
 own ers
c ul
 int elligence
 tr aff
ro ll
 e th
 R ec
 researc hers
 fight ing
2 8
2 9
 prim ary
 vo ice
 Ge orge
 stat us
 pat ients
 employ ees
 A nt
 reg ular
i pp
 crim inal
ol es
 G eneral
ro l
 f ine
 ey e
ic ed
 B rown
it ude
 s end
 r ule
 g reen
 cle arly
 r ise
C C
 pr ices
N ot
 l iter
 E very
 200 7
se e
ic it
 D ef
 R ob
 p ush
 H igh
en cies
 resour ces
b ox
 ar m
 sp read
sec ut
ic a
 fem ale
b on
u ana
ow ers
a ud
 Un ion
od ay
y a
us ion
ing ly
 cris is
 wa it
 B ay
 creat ing
 sour ces
 ha ven
 D is
 supp osed
le ction
 activ ity
id ers
 M et
I D
2 1
 sh ut
O M
oc ks
 dist rict
ate gy
il ed
ign ed
 claim ed
 fund ing
 charg es
 st yle
 sp ir
 conf lic
 L ou
ve re
 p un
 polic ies
if ying
 part ies
. '
 S un
 te lev
 la un
 sp end
 int egr
 n ames
 G old
 l ik
 Re g
E O
s pect
 sl ight
ij uana
 see ing
E C
 norm al
 agree ment
 trad itional
 h ospital
on a
 bas ic
 al bum
 belie ved
 end ed
 wond er
 off ered
 gr and
 ob ser
 happ ens
ear ch
 Flor ida
ect ion
 im pl
 ac qu
 opt ions
i pped
S c
 min ister
 b irth
9 0
 wh om
 be at
 mar riage
 ad op
 Ch icago
 j ump
d om
 prop os
 pr int
ak ed
S A
5 00
 sc en
 German y
 add ing
m ark
 Sc ott
qu e
 stre et
 qu al
 B re
IN G
 ins urance
ing er
 tr ou
 A P
 Ar ab
ag s
 be g
 ass ault
 reveal ed
 le aving
 M ost
 B er
 r ank
 ens ure
 will ing
7 0
 un s
 A ccording
 arrest ed
 200 6
ro id
 Hill ary
 se ction
 cred it
 b rief
  ir
 per m
 app l
ww w
. â
 un c
 deter min
 record s
 most ly
u pp
um an
 en force
 Tr ans
 w at
 f reedom
 O h
 st ation
 behav ior
 author ities
â ,
 c ry
O U
 m ount
 He alth
 A lex
 mass ive
 tem per
ab y
 mil es
E L
 abs olute
 produ ce
ist ry
 P ort
 act ual
 pat tern
 concern s
 en em
 t end
 w ild
p ri
 val ues
  >
 Eng land
 M o
 b orn
 f at
ac ing
 dr ink
 applic ation
al se
P ro
p en
 pl ant
 com mer
 C r
H ere
 post ed
 John son
or ial
 off ers
 cele br
 adv oc
r ont
 wh atever
 L et
ci ence
c her
 me chan
 Sec ret
rib ution
 run s
 m ale
 week end
n o
g en
1 00
 feel ing
 pict ure
 produ ced
 cho ose
 k ick
 independ ent
 tr ain
ri an
 M ag
 We ll
so ft
 learn ed
 the ory
 comm it
 belie f
 show ing
 d ire
ri ption
Im age
 Wh y
ur ies
 ad ult
 we ight
 m er
u ild
 crit ical
 co verage
B l
 law y
out hern
 te ac
 im ages
 doll ars
 ent er
 deb t
Ð ¸
 neg oti
 c ars
 P ress
3 3
 legisl ation
arl iam
 m ur
 init ial
 S am
 res idents
 W estern
 H am
 str ategy
 occ as
 jud ge
ra v
 E U
 prop osed
 no vel
est ic
 l ose
 m ission
 N FL
 d ream
 benef it
 L aw
 cond ition
 W all
r am
 f it
 dig ital
ent ed
ort hern
 Fr ance
ic ial
 influ ence
 et c
 advant age
 d aily
 estab lish
ber t
 rest rict
m ine
ad a
 dev ices
 prot est
ord s
 O ur
ce ll
 br and
 confir med
 G et
 oper ations
 Ph il
arliam ent
ill ing
 respons ible
 repl ace
u gg
 camer a
 c ru
gh an
 b ur
 sol ution
 che m
B S
 v ill
 le arning
 Comm ittee
 prov ides
 charg ed
h ttp
 St ud
 effect ive
 ask ing
a e
ic ians
 m ap
om s
 Pe ople
How ever
 open ing
 expl ained
 M ike
 hig hest
 ch air
E x
ri al
The se
 gener ally
 bas is
 = >
 tri al
 hundred s
 3 1
p oint
 ag reed
 opin ion
 inst all
um n
oc r
ear s
 typ es
Ñ 
 announ ce
az ing
z a
ill er
 L ab
 wor se
 interest ed
 def end
 M il
 he avy
 G reat
 commun ities
 elect ric
 M al
 3 5
r ate
 part ners
 eas ier
il ing
 neg ative
 re ject
 on to
 g e
 dise ase
 vict ory
 associ ated
 Franc is
i pe
 b order
r ig
t ies
 T er
 R o
 bott om
 Just ice
 telev ision
 put ting
ortun ately
 understand ing
 F ound
 dou ble
 hous ing
 mar ijuana
 he ro
om as
com ing
ad ing
 lim it
 e arth
4 4
 r at
 becom es
 f resh
 acc used
c ont
 Kore a
 B ush
 epis ode
 Off ice
 sle ep
ograph y
i os
C on
 c ore
G et
 intern et
 mem ory
 D iv
ic ip
wit ch
 becom ing
 b ed
 contro vers
 g ay
 fr ame
 P C
st e
 sol id
 opp osition
 J im
 scient ists
 mill ions
I L
 stri k
le vel
 B ecause
 we alth
 redu ce
 invest ment
 def e
 O ther
 L os
 loc ation
w in
 extreme ly
 compet ition
 L iber
 th us
 n ine
ili ar
 win ning
 lab or
 sur round
 Islam ic
 Canad ian
 B it
 open ed
 t ick
 ser ved
and om
sc rib
i h
 9 0
 inc red
 Q ue
our s
 mob ile
 ass um
o ly
ak istan
v est
 jo in
 M any
if ul
ol f
 dest roy
m iss
 aud ience
ir gin
G B
 mach ine
 n orth
icro soft
 act ive
 supp orters
 m ax
  00
3 2
l ant
 separ ate
3 6
 iss ued
 achie ve
i ation
 rest aur
 Ar t
v ention
re y
 d ed
we ll
k nown
 sh ared
 drug s
 res ist
 Inst itute
â ¢
F C
 expl ain
 dec ade
 illeg al
 h arm
i us
 purp ose
 f aith
 watch ing
 sp oke
 sit es
 U N
 7 0
 M od
 s outh
 J ones
 view s
 H all
l ished
 dep artment
 com fort
ist ics
 8 0
 ch urch
ak s
 D el
igr ants
 M ad
 sh ip
 r an
ed y
 Comm ission
e y
 man agement
ou ston
 Wind ows
ac ity
 S ince
w orks
im b
ic i
â 
ar io
 exist ing
 Sec urity
 profess ional
 fl oor
 U k
 trans port
 as pect
ad y
 Rober t
 doub t
 M iss
ul f
 ser ve
 p urs
 Pal est
 F BI
 Ad d
 back ground
as y
 return ed
 find ing
 A tt
 neigh bor
 s pl
 c ash
 Ch ris
at ically
N N
in ate
az on
 gener ation
 tre nd
 he aring
s pe
res p
 k id
 leaders hip
 Angel es
A meric
 un like
go ing
 pl ays
 trans fer
 c ateg
h ouse
 sur face
 defin itely
 concern ed
 w itness
 dri ving
 Af ghan
 struct ure
 doc uments
ct ors
 arg ument
land s
 inj ury
ann el
Ñ 
 gu ard
 laun ched
D A
 sp orts
 Y our
r ick
 l oad
P S
 danger ous
 b omb
 L ike
 Afric an
od es
 c ards
 far m
ud d
M r
 te ach
 v s
 aff ord
 f uel
 S up
 s an
ampions hip
 B ig
ic y
 dec isions
 Sand ers
z en
a it
 disc overed
e ah
 co al
 veh icle
wh ich
ul ated
m et
 c aught
3 8
 R om
  ;
 D ist
 m icro
 Comm un
 item s
 app eal
 comm ittee
el ine
 dire ction
 ref ere
 bl ue
! !
 phot o
 s un
 tell ing
 qu e
 mur der
 test ing
 Ch urch
ant ed
 Afric a
 n or
 hold ing
O L
in ct
f erence
 large ly
ibr ary
 support ed
 traff ic
 re act
or row
 we l
 R ock
 not ice
 am b
r d
and on
 cl osed
 W il
oy al
 repe ated
 d aughter
 candid ates
 suggest ed
 rad io
 B ank
ar ant
r ad
b ut
 meas ures
 Mex ico
4 9
 wor st
 M at
 Jew ish
s erv
 cont ext
 belie ves
 d ie
 sc ale
 conserv ative
l or
 In c
ag n
7 5
 Lou is
 commer cial
 tool s
i est
 Car ol
 girl s
 not es
 allow ing
 plan et
 T re
 S l
 small er
 I r
 C ap
 old er
 T HE
m ail
 P re
and er
 victim s
 entire ly
 streng th
 anim als
ens es
 A c
o very
 wa iting
ph one
 P akistan
he m
e qu
 gr aph
 ex erc
P A
 interest s
  ur
 del iver
 comp ar
 requ ires
Ñ 
 gu ess
ï ¼
 sur vey
 A re
 ra ise
 d er
 O ver
h ow
 un it
te red
iz es
it able
 activ ities
O ur
 e at
 Associ ation
 four th
se ason
 mention ed
 G ame
 19 5
 business es
 12 7
ig an
 h ack
 f alse
 T y
 c ook
ow l
 l ength
is f
! â
 t ask
 con sequ
 can cer
 tr uly
 St ep
 inst ance
 tri p
 jo ined
 Uk rain
 D irect
 spec ies
 att end
n el
 st ated
 F ore
 E v
d o
 ha ir
4 8
 K h
 pl aced
 man aged
n ight
cept ion
in ter
 Inst ead
hen s
 ple ase
 enforce ment
ang ing
 ann ual
 H ouston
 mod els
 ex change
 Sup reme
 J eff
k ins
 foc used
 dri ver
 V er
 r ough
ot ed
 str ateg
 p et
 J ose
 rem oved
 Ar my
 J es
 sto pped
 acc ur
 P ri
 Japan ese
  //
 g ain
 plan ning
ck now
ul ate
 m ental
r ange
 M er
 ass ess
oss ible
igh ter
 init i
 h us
 S il
 J ud
 ph il
 det ect
se mb
 st ock
ic on
 F in
  ice
le ge
 G OP
are n
 spokes man
ont o
E M
ocr acy
ruct ure
 estab lished
 fail ure
 convers ation
 has n
 be er
 b ul
an o
 c atch
 cont ain
out s
l ig
 set ting
 miss ing
 200 5
â 
u ct
and a
C H
 comm itted
M ore
 recomm end
 def ensive
 R ub
 C EO
 arri ved
 f ant
 off ensive
az ine
3 7
 appro pri
 P et
it z
 prov iding
 down load
an cy
 conc lud
u ke
N A
 s ch
 pres ence
 tell s
 introdu ced
 Al though
 201 8
ron ic
 tax es
h i
 t ough
Tr ump
 se qu
R ead
 fam iliar
 h ate
 const ruction
u zz
pl ace
 news p
 kill ing
 fin ished
 Brit ain
w ing
 use ful
 un ivers
 part ner
is ation
 obv ious
c ks
 protect ion
rib ute
a wn
st ream
ut ers
 circ um
 Y es
t ained
re al
 ex clus
 su st
 keep ing
 g ender
 wind ow
 upd ate
 ag gress
 G roup
 just ice
 ident ity
R A
 ve ter
 discuss ion
 t im
 st ick
 relative ly
 suggest s
oll y
 V irgin
 second s
itution al
hed ul
 other wise
, '
 a cknow
 T im
 F ox
our ce
od ies
 Th omas
 cut s
wh at
 Israel i
 emer g
form ation
 sk ills
app ed
 ab use
 trans l
k a
 M icrosoft
 Serv ice
 am azing
v ant
 hom es
 cl ick
 Le g
ol a
dd en
 than ks
 spe aking
y m
v is
 there fore
ann ed
ad ed
 organiz ations
 connect ion
 supp ly
H L
 pre fer
 un ion
 ident ified
 health y
 dep end
 Rich ard
 un its
Ã ¡
l a
 R yan
 Ph oto
 w ish
 dec ide
 Pro f
 4 5
el ess
oc al
 ser ver
 poss ibly
ony m
 big ger
re es
 s ides
 develop ers
 Ch ar
 ele ments
Ð¾ Ð
up s
pro f
g ers
 phot os
w ith
g a
A A
 a ward
 y ards
 p air
 oper ation
ag ues
 occ up
4 7
 M ont
ist ed
 N or
 Con st
 sol ar
 Res earch
b re
 J oe
 Cent ral
 slight ly
 fil es
ans ion
 feel s
 S ub
g l
anc ing
yn am
olog ies
 200 0
 M ars
 relig ion
 pay ing
 n one
 step s
m akers
 su dden
 rem ind
 fig ures
Ph oto
 dro pped
os ure
 own er
 cell s
 Te am
Wh y
ar ks
 twe et
S P
 start s
L ast
ic ide
 wor ry
 M os
 J on
 S ur
uck y
 pro spect
 Med ic
 3 2
 conflic t
 Im ages
ol it
 dom estic
0 1
 ac adem
 sp ort
 colle ction
ver se
rel ated
os en
 mult i
 Fr ank
m as
ul a
 ref uge
 T wo
 er ror
 Secret ary
ost on
im al
 help ing
] .
 var iety
 pr inc
3 9
 scient ific
 deg ree
 chang ing
 S al
 Govern ment
 stri ke
d en
a ven
 Pr ime
rou d
 app oint
av a
 imm igration
 fell ow
 p il
g ar
 me re
 car ried
gy pt
id ering
 The ir
 G ree
k in
P l
 spir it
p m
 plan ned
 f if
G o
 comm ission
 hus band
 D en
 A ri
4 6
 at h
 We b
 M ur
 L ee
 And roid
 account s
 he at
 equ ip
 bal ance
 happen ing
 app re
i pping
 R iver
 D et
 O ut
 fil ed
 profess or
er ous
 apparent ly
 M ary
ack s
 regard ing
 we ak
 L ast
 hon est
 Tor onto
 In ter
 spe ct
ren cy
 Austral ian
 Palest in
 b anks
 Mart in
 P ac
ul ner
 applic ations
 At lant
 Div ision
 increasing ly
s en
 m ut
 T ime
 tal ks
 fund s
k et
 sc hedul
 veh icles
 test s
 te en
it ect
D es
 ro ll
u ate
 cor ner
h t
 ar my
as hed
c oh
 de ploy
 Al so
 mark ets
 C amp
b our
L e
 Am azon
c ious
 phil os
oc ol
 l ived
 S T
 3 6
h and
 f le
 r ich
 G ood
3 1
 t ast
 hy p
 Found ation
 tw ice
 sk in
ict ed
i as
 C ath
ill a
g n
end ment
 tro ops
 t ack
is her
 app ly
 U s
 v ast
 sold iers
 reg ist
 occur red
 P ower
rast ructure
ro s
all s
 environment al
 t ight
 stand ing
 sound s
 D ec
 fl ight
 help s
 develop ing
 sc r
-------- --------
 s itting
  â 
ap ers
 f ol
 stre ets
 l osing
ay er
 cl in
A b
 sh all
 inn ov
ust er
 writ er
 v ision
 b atter
 turn s
an ia
ad er
 r andom
u nder
ore s
 B ur
 imag ine
 imp ossible
 F ire
 exper ts
I V
 neighbor hood
I ON
 ult imately
 pot entially
U T
 inter act
  Ã
 conv ention
 author ity
 att orney
  ì
il s
 M P
 great est
anc he
 Th ose
" :
 U nder
 hum ans
 c e
ov ing
 beaut iful
 absolute ly
5 5
 stand ards
 seek ing
 Francis co
 present ed
 d at
r un
ab b
 pie ces
 gu arant
 for ms
 f aster
 N BA
ru it
 exp ensive
 P ut
F rom
o om
g u
 ter rit
 st ars
 ref used
is er
 co ld
â â
 sign s
 p it
 oper ating
 cap acity
st ate
 altern ative
 r id
 200 4
 you th
 c overed
ress ive
 equip ment
at ures
 ap art
 b row
 cre w
ot hes
 N ov
 vot ed
 J o
 o dd
 poss ibility
 co ast
o ch
 bro ken
ad ium
O f
! "
 se a
 sc ript
 Carol ina
 deter mine
ash ion
 L A
et ic
 ret ail
 ad just
 pers pect
E ven
 elect ions
 un less
 respons ibility
 fam ous
 n ar
f e
 ar ms
iss ions
igh ters
I P
 se asons
 corpor ate
 h urt
 rev olution
idd en
 clos er
en ced
J ust
 st ress
 propos al
 Jack son
le ts
 I N
 tr ail
 intern al
I M
 express ed
rib le
 se at
 d in
 S ol
 estim ated
in i
 surpr ise
 P ublic
 H y
 Col lege
 anim al
ter day
0 3
 B oston
 point ed
 ind eed
ic ate
S S
O W
( )
 percent age
 Syri an
 car bon
 William s
 Gu ard
p erson
 rul ing
 h un
at o
 re nt
ot ic
 con clus
 g ar
as tern
 v ulner
 weap on
 appear ance
 Bit coin
ly mp
 se ctor
 B ern
ste in
 t on
 O nce
 E gypt
 govern ments
 J ournal
ph as
 mot iv
urb an
 specific ally
 fact ors
 S ant
 tr ig
d ate
T A
 rap id
 exper t
 bring ing
 Dist rict
 dist ance
 Cons erv
 pro ve
 D aily
ure au
3 4
 ag encies
ce an
ed ia
 b aby
 vide os
 ins p
 he av
 s ale
 loc ated
 her self
p ret
 se lling
 B ook
E very
 pl enty
 inst it
coh ol
 cult ural
 int ended
n oon
 g rew
S p
 inf rastructure
 exper iment
 A M
ro ad
ll er
 ag ent
 M el
l ook
 m arg
L et
 sub s
 re action
U p
I I
 re venue
 st ret
 el im
 j ail
 d im
 arg ued
 Virgin ia
ri er
 main tain
 hand le
 determin ed
 b ought
 R oad
 method s
 T ra
 off ering
 significant ly
 copy right
ar p
 f ired
 dr am
 vis ual
 Ste ve
 rem ained
 fl ow
 vot es
 equ al
ce l
C L
 elect ed
ed er
 5 00
 un iversity
ur ation
 er a
S ince
 b reat
an ish
I G
 M iddle
m osp
 sat isf
 F ederal
 sec ure
 fin ish
 a st
 Afghan istan
l ines
 w ood
ang ers
ut s
ess ions
 reg ime
 cons ult
es ters
 were n
 we aring
 coun cil
 chem ical
 bo ost
 US A
 critic ism
or age
 pro secut
 col umn
 m al
 up gr
 b ound
 experien ced
 comple ted
stand ing
 pos itions
i at
 obv iously
 rem ove
 M ass
T V
 B et
 fil ms
 bro ke
 conduct ed
 O lymp
l ife
 con cent
 B ob
 appre ci
 Is land
 surpr ising
 affect ed
 adv ance
 comb at
 c as
ock ing
ob e
F irst
6 5
 t urning
 P lease
 Ch ief
 qu ant
 Soc ial
f ree
 invol ve
in ating
 sy mb
 capt ion
 Oh io
 An y
 differe nces
 D uring
ul ations
 te le
 t act
 bas ically
m m
 W ood
cl ass
 priv acy
 s witch
 pr ime
 R on
ell ow
 pull ed
 record ed
 Sp ace
it a
ly n
 ser iously
 pass ing
 gl ass
 Par is
re ens
 sh ape
 f ly
 ad vert
 can n
Ð ½
 S ing
 acc ident
 F ree
 tre ated
on om
D P
 G al
D o
 rem aining
 bel ong
 r ain
 fac ing
 end s
 redu ced
 air craft
 exc ited
0 5
 sp ring
 mar ried
 expl o
 attempt s
 B oth
em ploy
ol ved
 than k
 wide ly
 prep ared
 Med ia
EN T
 pl us
 orig inally
 L at
 H aw
 sur ve
 A N
 after noon
g ment
 talk ed
 opportun ities
 b odies
 v ir
 coll abor
 cl oud
ive red
h y
 supp l
use um
P e
 opp osed
 dis miss
ra wn
ap ed
 st orm
 hop es
 z one
 ele ment
 Col or
ens ions
 p ages
 cons idering
ok ing
av or
 support ing
I nd
ain e
 ref erence
 min ute
 ident ify
 R em
 F er
 m aster
 b att
y r
por ary
H is
 R od
W ell
ã 
An other
 cont rast
 dis s
 R el
 pro ceed
 Wh o
tern al
4 2
th at
 broad cast
ani el
 fr ust
 purch ase
 even ing
 liber al
 g iant
n am
 Ph ot
 Bl ue
 Lab our
 H uman
art s
 s ke
 opt im
 expl os
 M att
os ite
er ved
our ney
ang ed
 consum ers
 lot s
 St an
 199 0
 trans ition
 lead s
 polit icians
 list en
 rep orters
w ar
 sh ift
 em p
 challeng es
ort ion
 den ied
 Sh ow
 S cience
 Pro ject
 For ce
 P eter
ab ilities
T ube
 m ent
ro g
 vot ing
om pl
 l it
 cr imes
 pick ed
us iness
h ost
amp ion
 c raft
 C apt
 strugg le
 se m
 S ee
ri e
or al
 se vere
al ed
 Muslim s
r as
 comb ined
l o
L S
p ass
 cre ation
 un able
 fac es
 ag ents
 P M
 S her
ur rent
re land
 writ es
 p roud
v in
m l
m ates
 play off
 gun s
 decl ared
 Jes us
 decl ined
ru ption
ow nt
 pack age
 min imum
 D ou
m ond
 N AS
 mor al
 fact or
 f ra
 C ru
raz y
he red
] ,
O h
 should n
 pan el
resp ond
al ing
 mod e
 Pro t
 Mich igan
 emerg ency
 do ctor
6 4
  id
ner gy
 viol ent
 th r
ound ed
 mat ters
 f ish
 O k
 suff ered
 S C
uc ks
ol t
 qu iet
 cl ient
 adm itted
pl om
 appro ved
 4 8
 S pr
 And rew
 perspect ive
 l oved
 disapp oint
as ure
 pro ced
 inj ured
 cr ack
z er
 h ol
 const ruct
 co ff
 M em
ribut ed
am in
P D
 ord ered
 inj uries
 circum st
 arg ue
 Tur key
 R ad
 on going
 pl ants
 T oday
 3 7
od d
c ons
 del ivered
 3 8
 quarter back
 C NN
ne ll
c are
 S qu
 subst ant
 fr anch
 a id
 techn ical
 L ake
 trou ble
 O pen
is ters
ain ts
 respond ed
p et
R ep
 m ort
 app s
 T al
 walk ing
 miss ed
 Sc ot
 J ul
ev in
c an
D e
 num erous
 appropri ate
 typ ically
 m ir
 l ob
 b urn
 activ ists
A m
 cal cul
 read ers
 stand s
 re new
ac r
 t ourn
 em phas
 del ay
 su it
ent ure
b an
 disc rim
 Y et
 upd ates
 cap able
 tal ent
 though ts
 S aud
O ver
 conf idence
 R E
 off ense
 arch itect
0 2
og ue
 for g
id el
ell y
 newsp aper
all as
 trad ition
 enem y
c ol
ot y
am m
 instit utions
, â
 sub sequ
 material s
 Ch arl
 find ings
 dep art
 A T
Ã ³
 g ra
 ex cell
 set s
 conf ident
ig er
 reported ly
 list ed
h ab
 secret ary
in et
ov es
 connect ed
 adv ice
L E
du le
 incre ases
 b ull
 B BC
% )
 we ather
 Har ry
il ty
 s ession
 def ault
 edit or
 acc ompl
ed d
 every body
 Re v
 Se attle
 Gr and
is hes
il it
 prom pt
 Christ mas
r id
 p itch
 expl ains
 M a
as p
 ro t
 f illed
 al cohol
 for get
l i
D uring
 exp ansion
 We ek
 t un
 prot ests
 cent re
 at mosp
ath an
 r ail
 ent ertain
un te
 trans form
 Ge org
 F ollow
ok en
 te ch
4 3
 Te chn
c alled
 threat s
 pract ices
Ã ­
ab led
 he ll
ac he
 mess ages
 rout e
 i Ph
 ev al
 S um
 A v
 fl ood
 I reland
4 1
 pr in
 m and
ill y
ard en
ap ter
 state ments
raz il
 Re ad
 S ign
ad ow
P R
 we ar
 P enn
 Direct or
ul s
Americ an
 R oman
u ations
in als
 200 1
9 5
 Col umb
 build ings
 behav i
se x
end a
 pat ient
 effect ively
 public ly
 house hold
app ing
 virt ual
 report ing
 G en
 bas ket
un ction
 Jew s
 adv anced
 s am
r ant
ed s
 co ord
 disc l
 val id
 s ad
 p owers
st s
res ents
 b ond
= "
 co oper
o oth
O D
 sy m
 conf irm
 lab el
 F e
in ent
 fact s
 P rem
O ther
 announce ment
 a f
 re in
 laws uit
 L ib
 inc or
 exam ples
est ival
 200 3
u ous
 schedul ed
 n ations
F ollow
A pp
 em ails
 sp ons
 leg it
o en
ion ally
 real ize
 a uth
 Ukrain e
al a
 ed ge
 L in
 init ially
 R ights
am ental
 ca uses
az a
ar ry
r um
 r ising
en ger
 object s
 net works
 pict ures
 S ports
 Y ear
 store s
 inst ruct
ER S
 ne ither
i ot
c os
M A
 ath let
an es
M any
 alleg ations
ag ers
T C
 govern or
 class es
 manufact ure
 s ought
 follow s
 per man
 I P
 t rib
 H en
w ater
 restaur ant
 our selves
 death s
 exerc ise
 v an
 mag azine
b ur
 su c
 high light
 IS IS
t ion
om a
 surpr ised
 boy s
 appl ied
 rem ark
 ent ry
 accept ed
ess or
es ome
ans as
 4 9
 c art
 terror ist
 br ight
z ona
u y
al ty
 W atch
 young er
 comb ination
 ar med
 mov ies
 appro x
ocrat ic
ad or
 d ynam
 b ike
 philos oph
 I ll
 sh ots
ord ers
R es
 lawy er
 n ative
 W al
 for t
 You Tube
 Bar ack
g ame
 po ol
 my ster
 expl an
 Sec ond
scrib e
l ong
 en h
 rad ical
 beg ins
ar ters
ay lor
 near by
 discuss ed
 3 3
 dec re
 var i
 deb ut
 O F
 g ather
 bre aking
het ic
 cont ains
 Im age
M ost
 gr ab
 W ork
 B ack
t op
 yes terday
 3 00
ic ing
Al though
 pro hib
 Cl ub
5 7
 p ure
 b ag
 art icles
 On ly
 al t
us al
ult ure
 sub m
 head s
 di agn
 but ton
 with d
 tot ally
 fl o
 f ashion
  ing
S pe
, [
 colle agues
 An other
w est
 perform ed
or ry
l aw
ir ty
 link ed
 des ire
 b are
== ==
 art ist
 Cath olic
st ood
 dem ocracy
al i
C ont
 th inks
 T O
 p ra
 mot or
 ess entially
 mov es
6 6
 rece iving
 any where
 di plom
 sch ol
 A ff
 war ned
 Sy stem
 to w
 V ict
U R
 temper ature
 necess arily
 met al
 le aves
 add s
iam i
er ry
 vac c
 suc ceed
 experien ces
 consist ent
 O ld
ph y
ide o
 rough ly
 ent ered
 war ning
 ab andon
on na
 fac ed
 W alk
olly wood
ic ian
ac le
 impro ved
 histor ical
 exist ence
 c ert
 C le
w hel
S ee
 p arliament
 bl ow
 inter pret
 M en
F P
 res olution
 j ourney
 d ial
 imm igrants
g reg
 3 4
 l inks
 hold s
 sa v
 rep resents
 r ide
 gu ilty
 B razil
t witter
M ay
Q u
 stre am
 in put
 war m
 Val ley
 De velop
 198 0
 h at
s hip
aw a
 p hen
 K enn
 pus hed
 hard er
 few er
 C ast
ic ious
f ortunately
 L ife
 Bo ard
 targ ets
 K en
 consequ ences
 W he
 fair ly
 creat ive
 target ed
 return s
 M s
r ich
 is land
 cor respond
 class ic
ok ed
The n
0 8
 r ally
 do ctors
 C ub
 st ood
 j oint
 br ings
 cur rency
 H ist
Y es
6 8
 D ie
 b on
u a
 ro w
 l ie
ri p
E n
 Pl an
 Ex p
iqu es
 invest ors
 Rom ney
x y
 know ing
 M iller
' ,
 man ner
 int ention
w ord
 As ia
C an
 w ins
 v ice
 heav ily
 f ill
T S
 str ange
 sc ored
oc ation
 G ames
 sh op
 fac ility
 dat ab
 st orage
 relationship s
 w est
 hop ing
ch o
ul ous
b orn
 earn ed
 subs id
 for med
 hard ware
 squ ad
 repl aced
 custom er
or se
am i
S e
O RE
 n av
 hot el
 E ach
com m
 dri vers
 dep th
 alleged ly
 Ari zona
ost er
 e gg
 rep ut
 C arl
and al
P ol
 t ree
 fav our
 conf ront
 Sw ed
 consum er
 circumst ances
 Saud i
ig ure
 mom ents
 m outh
 It s
semb ly
om ing
 exper im
ens us
 s ister
 r um
 close ly
 V ol
L A
7 8
 sh if
 inf l
 import ance
 an cient
 S ar
olog ist
f oot
ill ance
 prot esters
 frequ ently
 V an
 S ky
 May be
 opp osite
 F il
 unlike ly
 fun ctions
 c ab
 G ar
 excell ent
 def ined
 attack ed
 Color ado
 un us
Don ald
 l ock
 http s
 h ur
 ded icated
 E ric
m es
ac c
 l ibrary
 emot ional
 Pac ific
 some what
 mat ches
 Ir ish
 main stream
d ef
 J r
ere nces
 fra ud
 regul ations
 c razy
 song s
 sh aring
 ch ain
et te
 mon it
 T op
A dd
el lect
 ne ut
 fl ag
du c
 wat ched
 che ap
 was te
 E lect
y ou
 ext ent
 market ing
 e ating
 W ild
 E nergy
 pus hing
 un iverse
 ess ential
 7 5
 w al
 ob serv
ren ce
 vers ions
 pl ed
 fund amental
 O l
c hen
 spl it
 carry ing
 Pol it
 dec line
 along side
 acknow led
 Put in
 int ent
 d iet
 con gress
 plan e
oc key
i i
 w ave
ian a
Pe ople
st r
ap se
 sign ing
 g rown
 walk ed
 er r
 cont est
 iPh one
 E ll
h us
 Dav is
 un known
 res ident
at i
 se es
 l ies
 detail ed
 squ are
 disc over
es c
 M ount
er ves
 news let
ro it
 b at
 Cl ass
 k it
 cy cle
 ca using
u ated
omet imes
iven ess
ird s
 em br
 describ e
 bu ying
 It al
 D allas
n s
ke l
 G M
 z ero
 e ast
 sche dule
 em pt
 S ov
op y
ograph ic
 med ic
 dist ribution
 Bro ok
ef ully
 6 5
ic an
T wo
 tr ick
 ev olution
 N Y
 own ed
ra ham
 d ownt
 commit ment
w oman
ici ency
 su icide
 l augh
 res c
 mot ion
 is ol
 fl at
 ch annel
ens ity
 real ized
 indust rial
 adult s
 act s
az e
 franch ise
I R
 de als
 M iami
I F
 prom ise
 C ard
al o
 You ng
v a
 h all
C E
 sim pl
 re ward
 opp onent
 feat ured
 vol unte
 s ending
 Char les
Ð »
u gh
or a
ack ing
 H ol
 R ight
c hers
am ily
 stru ck
 l iqu
 chair man
ast s
 post s
 me at
G G
 sk y
 rele vant
 Br ad
 defe at
 Kore an
7 7
ut ch
ay ers
 teac hers
 W at
 insp ired
 con ver
 t iny
 man age
 deal ing
ac ter
 obser ved
 control s
so le
 s now
 controvers ial
 comfort able
 Wil son
 R am
 up coming
 ill ust
 batter y
 M ot
 F ar
n ic
 immedi ate
 nar row
 St r
 Ag ain
 exc iting
  urg
b el
B O
 test ed
 compet itive
u able
om in
b oy
 w ake
 kind s
 proper ties
O r
** **
 K im
 A ut
 pass ion
 suff ering
 L ord
 s ick
 express ion
 eff icient
 attempt ed
 fl u
 H el
 De v
 C y
â .
 ter min
 auth ors
ock et
ins on
 to m
 bu g
 F re
 symb ol
 any way
rom e
ob ile
pp o
et her
 n orthern
 expl ore
 V iew
 An n
k o
Des pite
 repeated ly
 K evin
or ation
D S
 select ed
 deep ly
k ay
.... ....
 us ual
 em issions
 L ong
R el
 sent ence
 cr ash
 as ide
 Serv ices
 sh o
 ag enda
 N HL
 dom in
 act ing
 Def ense
 liter ally
 gu ide
 En ter
ol ve
 un employ
 refer red
 out put
 opp onents
 sust ain
 stud io
 reg ional
st ers
 fix ed
 c ere
ce ived
 vol ume
 b oss
ik i
O b
 str ing
 d ry
 mechan ism
 invol ving
Ã ¤
 f ighters
 fif th
ger y
 over whel
 surround ing
 ra pe
0 4
 s ample
 cut ting
 W omen
 dis ag
 ass ert
r ations
 destroy ed
 act or
i pl
b urg
J ohn
 imp ressive
ver ty
am ber
 Jer sey
ang es
um ber
 ob lig
 not iced
 let ters
 In f
L ike
 upd ated
 ch ampion
 Step hen
 trans p
8 8
 r ing
 person ally
 E conom
 swe et
 she l
 ass ume
 sk ill
 po verty
 B oy
x ual
im p
 un cle
 rem ote
 m ine
 ass ets
red it
 wor ried
 pl ot
 lat ter
 D own
d ro
C A
 g ap
end o
az i
 put s
ot es
 s outhern
 fol ks
 techn ologies
 sudden ly
 Soc iety
os is
lud ing
b ar
 Georg ia
  urban
se a
 al ive
ord an
 r ub
ri ve
GB T
 slow ly
 F oot
 p ip
 max imum
 g od
 Cont in
â â
we ight
 particip ants
 d ress
 L ight
 C am
ag an
 inst ru
 const ant
 Th anks
 pre gn
i very
 al g
 prom ote
 197 0
c ow
 p ed
 win ter
 protect ed
in em
0 9
 fe es
 3 9
 recogn ize
 lic ense
 base ball
ate ll
 se lection
 aspect s
re te
g ender
 prof it
 mod er
 div ision
 art ists
 D i
 resist ance
 bl ame
P U
 he ight
 W ay
 D am
 the rap
 sche me
 An th
ot ten
 T H
as ks
 w age
 dr ag
 cond em
 D an
 ser ving
 rep orter
 neigh b
ll s
 under stood
 esc ape
 coff ee
ing u
f riend
 L abor
 require ments
 sy n
ra id
f ire
 claim ing
 M ax
D r
 arg uments
 n arr
 for th
 B at
 B as
z y
 H ollywood
reg on
 cl ients
ig g
h an
al le
z ens
onym ous
 some how
 Cru z
uild ing
________ ________
 im per
 ide al
ons in
 I D
 E r
 nom ine
 good s
 Comp any
6 7
 mere ly
au g
O C
isc onsin
 sym pt
 phen omen
ur a
 Net work
ad el
 N ic
ath y
 fall ing
 categ ory
 b le
 all ies
ep ing
 proper ly
 ob tained
 commun ication
 un p
 P R
 ret ire
 hon or
 g aming
 basket ball
 fem in
as ters
 employ ee
 K n
p ost
end ers
 loc ations
 find s
  Î
P er
 some body
 mist ake
 teac her
 ev il
 g ro
 electric ity
 crit ics
pr int
 world wide
ci ples
 ch ose
 B owl
S ec
 w ww
 g ang
 ris ks
 appro val
 Sp anish
s l
 S outhern
l ights
 some where
 prom ised
 ph ase
 form at
r ison
 w id
 T aylor
ig ation
 Su pp
 G all
 inform ed
 P y
 ¬
 des per
 contro lled
 camp us
 new ly
 cho ices
if orm
 H ot
 doll ar
  \
on ic
is an
I nt
 V iet
 D aniel
ow a
it arian
 wel come
 pl astic
 pay ments
 ch osen
 Des pite
 200 2
 tr uck
 surve illance
 defin ition
 D C
% ,
 them e
 Mo ore
c ers
 Palestin ian
 Jose ph
ow ed
 encour age
 stret ch
 Scot land
i xt
 J ava
d is
An y
 t ort
 se ats
V ER
 Det roit
 W here
 W ars
 L and
j a
 tourn ament
 territ ory
 perfect ly
 direct ed
 pay ment
 A uthor
 develop er
 Rub y
or ic
 s ight
 exp osed
un ning
t a
 offic ially
 Sov iet
 H ome
p ool
// //
 equ ival
 cl ar
 capt ured
se ll
Pol ice
 prec ise
ack ed
 support s
 got ten
um s
 vill age
 terror ism
 may or
 f uck
 Ch ild
 ord ers
 incred ible
 ext ended
 const it
nes ota
 amount s
 st im
 fac ilities
 conf ig
ow ered
 reason able
 lik es
 int ellect
 aggress ive
 ad apt
 T w
 strong er
 reject ed
 F ord
a ire
E W
 ph r
 d rawn
ear ing
 ret urning
M an
 f old
 N ations
the re
 trad ing
 threat ened
 pil ot
 dog s
r age
ry pt
ort ed
in ations
 typ ical
 rout ine
 inc l
 St and
r ary
 NAS A
Ã ¶
 cy ber
 be ar
 any more
 T it
 N ight
st ar
ce ler
 B est
 b unch
 R og
  icon
 w estern
 N ation
 E p
l v
3 00
 t ied
 d u
 prim arily
 rul ed
 ben ch
 w ire
 ap artment
 J un
 It aly
 ex hib
 compar ison
il er
 C amer
E P
 journal ists
 commun ications
 Ag ency
 result ing
 poll s
 F our
 Ac adem
 reg ions
 purp oses
 capt ure
 Prem ier
 D un
 p ic
 estim ates
 top ic
 tit les
 strong ly
 reg ularly
 conclus ion
 approx imately
 Th ank
 p al
 Or gan
in er
9 8
 f lying
c les
 so le
oun ter
Al so
 win ner
 no body
 As ian
 th read
 requ ests
 pro of
 ext ensive
 conclud ed
 ad s
 refuge es
 p ace
st yle
 Spe cial
 T est
d a
 f asc
 ext ract
 drink ing
 Ad minist
i ro
 L ove
 veter an
 b id
 an x
 B ull
w an
b ell
 collect ed
Ã ¼
 we ird
 pun ish
rap h
ig en
act ive
 assist ance
he nt
a o
 ent hus
 dri ven
 contin uing
 atmosp here
ick et
e en
 found er
 field s
 cru cial
 Fore ign
 F ort
 meet ings
 Att orney
et ary
 prof ile
 par am
 Ad am
il arly
f all
 prov ince
 in qu
B ecause
ot al
anche ster
 L u
 un w
 adop ted
pect ed
 hous es
t le
 ex ists
 comp rom
 al ert
ld er
 san ctions
 H T
 aw esome
 S k
hip s
 s and
 dist inct
ï ¿
 academ ic
 pl ug
 est ate
 end ing
 def ence
 program ming
 ha bit
 gr anted
 W isconsin
P G
\ \
5 8
 view ers
 explan ation
 U t
 Ch ampionship
 pen alty
u an
a ed
 reput ation
 r ival
 E nd
ick en
ax y
 lim its
 dec ent
 de leg
 const antly
 sp in
 bit coin
or ne
ind ing
 rac ial
 pro ved
 f lex
C S
 k il
 dem ands
 datab ase
 writ ers
 t ies
 ab ortion
 4 2
 pattern s
 empt y
 sign al
 br ut
 advert ising
 T ony
v y
ess ed
c ript
ab is
 d uty
 Ste ven
 K urd
 inn oc
 Ar ch
 ( $
  iron
 t all
 contribut ed
 E astern
ol is
e z
act ions
T oday
 lo an
 answ ers
 Sp ain
ic er
 T em
es y
 feed back
L L
0 6
 war ming
 tast e
ific ations
 r ig
 park ing
 M ic
ann y
 ent it
l ers
em s
": "
 h its
 Th ough
 H un
 p od
 coal ition
 O s
 H it
 4 7
ap es
ag ram
 t aught
N C
 compl icated
 comp onent
R ec
 c able
 u pper
 sol utions
 Mos cow
0 7
 techn iques
 person nel
re ll
S L
5 4
 ter rible
 pass es
 deg rees
 incred ibly
 O regon
 Min nesota
 1 50
 bre w
 I d
 A R
H S
 m ail
 cont em
 B rian
 ins pir
 def ine
 coun sel
if er
 comp onents
 N BC
ret t
og an
a un
 surv ive
 st ead
 f ought
 O nt
 out come
 st uck
 r ating
 had n
st one
 ro ster
 ex cess
 P en
ib ilities
Get ty
A h
 J osh
 A venue
 pain t
O nce
 sur gery
 man ip
 ra ising
 mag ic
 L GBT
 s oul
 narr ative
 mark ed
 Vict or
 T urn
m ont
m od
 work er
 ch ampionship
 B alt
 th in
 gener ate
p es
5 6
re hens
 sit uations
 Se a
l og
 ne uro
 C IA
 autom atically
 G i
s m
r ating
 prin ciples
 keep s
 eng age
 col on
 b om
 N orthern
 track s
 do zen
f ast
 har ass
 con ven
 Ital ian
 Am endment
 scen es
 organ ized
 consum ption
g un
 vulner able
 represent ed
 r us
 law makers
 bill s
â ,
 D ark
b ec
 6 4
n ame
 compl aint
 C oll
 B ell
  â
sc ape
in f
if ies
 en able
 contract s
re f
 regist ered
 ap olog
 unus ual
 else where
 brow ser
 J ordan
 J ason
 D ar
 Const itution
 mix ed
 C ross
 cl imb
 ch art
 accur ate
 h ole
 des k
 ang ry
 B ru
 success fully
 C at
 k ing
 P ay
O ff
F r
 tre es
 C ivil
M ean
 R ay
 I owa
 C are
p an
er a
atur ally
 ph ones
 p in
 f ake
 employ ment
l ock
 camer as
 P an
M ar
 lawy ers
 Re al
it ors
 feel ings
 ant icip
 a ver
 201 9
Ñ 
 N ick
 F C
 C irc
 cons pir
 assist ant
im a
ab ama
 enjoy ed
 L ook
k er
 m urd
 gr ant
 dep ending
 S n
 O per
 gener ated
 b es
 4 00
 199 9
or ith
 unc ertain
 cons cious
ph ia
 regard less
 poss ession
In st
E A
 club s
 histor ic
 af raid
 ext ension
 ar ray
 rare ly
 T ake
t es
as er
9 6
 ob st
 med ium
 b oot
 B usiness
 priv ile
 aff ili
ir k
ili pp
 ext rem
 d ict
 aim ed
p at
 emer ged
 A h
 acc omp
 M u
r ates
os a
en a
M P
 int ense
 ch ances
 b ath
 ag ric
 st ations
 inst alled
 K elly
 Z eal
 Hen ry
 B ry
re p
 r u
 Gl obal
ir ms
cl ing
C om
adel phia
 negoti ations
 comp ens
or ough
og ether
 subject s
 fin ance
 rec overy
 gr ass
m o
ever al
ab il
 suff icient
 profess ion
 St ill
 Re uters
 M S
 Lin ux
 Be fore
it ar
 h idden
 C O
 val uable
 trou b
 result ed
5 2
 c up
 S ir
c ar
M c
 sp ark
 inf ect
 do zens
 E duc
pr ise
 t ank
 r iver
 As h
 â ¢
 cry pt
 j e
 ind ex
 equival ent
 F ield
t aining
 vis ited
 v en
 pro te
 p ounds
 Con f
m al
 sol ve
 downt own
ent h
 manufact uring
 expect ations
isc al
 eng aged
 D NA
iz z
ik es
 lik ed
 fun ny
 enem ies
 describ es
 Tur k
 perm ission
 process es
 c ited
l s
ist ent
in ity
 cour ts
 princ iple
 l oud
 L o
 L ive
 y ield
 g all
5 9
 en orm
M S
 s atell
 perman ent
 el ite
 Be ach
 rel ief
 fe e
 Christ ians
id ency
 g onna
 bus y
 my th
 att ended
l ist
idel ines
 ro les
up id
 w ing
 m el
 g ained
 f ault
 expl icit
Mean while
 thous and
 bl ocks
 V is
 Pol icy
 aud io
 M oh
 C BS
 K ent
ag g
L C
 sh ares
 main ly
ul es
 oper ate
 compet e
he rent
im ore
 C D
c r
 W ater
 F air
port ion
 sc oring
 dis aster
 beh alf
 teach ing
 disc ipl
 deep er
U N
 tick et
 prom inent
 n ut
 dec k
ott ed
U ST
 ve get
 ro ot
 rec ip
 com ic
 Th us
o j
l ah
b al
 indic ate
bur gh
 sc ream
 back ed
 4 4
ann a
 sa ved
% .
 sh arp
 del ivery
 Sen ator
 Mc G
v iously
 Zeal and
 M anchester
 C all
 tax p
 b ra
au c
D av
 air port
 adv is
 un iform
 strik es
 head ed
 P ot
ad s
 redu ction
 prior ity
 engine ering
ask a
 mach ines
 O S
 C ome
us ive
ul ating
 st able
ars h
M L
 webs ites
ach ing
U s
 G reg
 strugg ling
 g ift
 every where
 F ood
AT E
 th ick
 rid ic
 creat es
qu arters
if est
 phot ograph
 L ew
 Co ast
u ine
il ton
 t ag
mon th
ch ain
ad i
 ill ness
the w
b a
 bl ind
 Die go
  ë
 po ly
 5 5
f ound
T H
 F red
 withd raw
 4 6
 
i el
 wonder ful
 Foot ball
 wall s
 minor ity
 R oyal
 scen ario
 particip ate
 cont aining
 ac celer
 Academ y
 loss es
eng ers
9 7
em en
Th ose
C o
 short ly
 T own
 P S
 4 3
 cor ruption
we et
ar on
 coll apse
 P arliament
 over se
 fl aw
 Anth ony
." [
 ro se
 su p
 br idge
 alg orith
 Atlant a
  ?
oun ced
 G er
 sympt oms
 achie ved
 Mark et
 In vest
 Con ference
epend ent
an ing
 mag n
 Develop ment
wh o
th is
f rom
 un com
 Al abama
 recogn ition
 port ion
 in ev
 fore ver
 ar range
 T enn
 M ajor
anc ou
ab s
 move ments
 g am
d em
 V eg
 I T
p read
Be fore
op her
 w ages
 rec ru
te en
aw ay
ou red
it als
 restrict ions
w r
prof it
int erest
ides pread
at hered
 neut ral
 journal ist
n i
 v ary
 Ab out
8 6
 belief s
 St one
 S P
y ard
) )
 schol ars
 la id
 l ists
 conv in
 up set
 Pro gram
 H as
ion e
 s acr
 discrim ination
 del iber
a us
4 00
 behavi our
 struct ures
 found ed
ink ing
 B ang
 sp r
 interview s
 rec ording
oen ix
ancou ver
 redu cing
 W in
 O ak
 re ly
 nomine e
og en
 H aj
 t ip
 re n
 implement ation
 b anned
 owners hip
 Mus ic
et ime
 eth nic
 Ph ilipp
ind er
5 3
 tack le
ick ing
C ol
 Re view
 Phil adelphia
 t ur
 inter face
 eas tern
 do ors
p o
 suggest ing
 ste el
 comput ers
le te
 rem em
 ind icated
 M id
man n
fl ix
 o cean
y e
u ction
 h ired
 bare ly
r ative
rou s
ro lled
omet hing
 draw ing
 P oint
he ast
f ront
e lect
P r
 conv icted
 N ob
 A BC
as hes
St ar
 tr ained
 intellect ual
 form al
 progress ive
 H ay
ou ch
ang el
 ed ition
 V R
E d
 dest ruction
 leg end
 din ner
 Ant on
 touch down
 E mp
as ion
arr ass
 R ose
ose xual
 vis ible
 S af
H A
 sh ock
 c os
 Ser ies
 reach ing
 gen etic
 Per haps
es ter
ant ic
 whe el
 establish ment
 w idespread
 light s
 count y
 H om
w orld
less ly
 str ict
g ent
 corpor ations
 F ull
 rep rodu
 O p
s he
S m
 beg un
 N SA
 De ad
iz on
 ele v
 conc ert
M e
 found ation
 cont ained
l an
 ter r
 prop ag
 fant asy
 b ub
 S now
 friend ly
m aker
ay ing
 vers us
 philosoph y
 F urther
 farm ers
 Gree k
 frame work
 Pat rick
k ed
 c orn
lah oma
R I
P resident
 th rown
 Jud ge
 F und
 j u
 convin ced
 L ind
ol en
b ro
 to ler
 process ing
 jo ining
 ent ering
 Rad io
 R us
 R ick
L ook
 ut il
 exp osure
 dev ast
 aware ness
 In s
pl oad
 b urd
p age
level and
 independ ence
 f inger
 McC ain
 E s
x ic
 May or
 rapid ly
 disag ree
 P o
sy lv
 unemploy ment
 conc rete
 challeng ing
 st eal
 not ion
 l oyal
 gen uine
 foot age
ri ers
r ical
c ription
 j ury
 citiz en
 ch a
 Al bert
h o
ams ung
: :
 trans gender
 mind s
 Th ree
 4 1
8 9
 rob ot
 ro ok
 m oon
 dep uty
m aking
U nder
20 16
 uncle ar
 rac ist
 Min istry
 M ir
 L ittle
5 1
 resour ce
 P ack
 sm oke
 inv ited
N e
 recogn ized
 inv ent
7 6
 initi ative
od ing
 ske pt
 f irms
p ower
 h itting
 Med ical
Ab out
 tick ets
 f iction
 care fully
 T our
 Cent re
 techn ique
re pre
 rec over
im m
T P
 v ital
 pro ven
 hard ly
 I M
 we lf
 t or
 ret ired
 min ing
 N ote
em an
 exclus ive
 Educ ation
 Administ ration
p a
ob s
es h
 out s
 al ien
 He ll
re c
 comp rehens
 att ached
S ub
7 4
 pro sec
 epis odes
ud es
 st adium
 dem ocratic
 S cient
 C ur
 A le
T e
 substant ial
 sh ips
all ing
sylv ania
 phot ograp
 log ic
 any body
 5 2
i ability
d oor
 sh r
 disc overy
 collect ive
 199 8
ã ¼
 welf are
 p ig
 equ ally
repre ne
our ces
N ote
 speak s
 el ig
 col ors
 associ ation
 E SP
 C A
 rece iver
 infl ation
 h o
 Sant a
 ult imate
 inter vention
 c ogn
ile y
 G ov
ust ed
 subsequ ent
 produ cer
 b orrow
 feat uring
 Mar c
 sett le
 A D
um es
 sc andal
 prem ium
 hand ful
 King dom
 Balt imore
ino is
 reg ulation
 Se ason
 R et
 expand ed
 d ance
 campaign s
ri a
 w ars
 sy nt
 human ity
ow ing
 t rem
 prison ers
 compl aints
 19 60
Ð º
ov al
 improve ments
 fall en
 as ks
c ific
 p apers
 h ide
are t
 re ven
 cl othes
 Ke y
 pl ate
 incor por
 d iversity
 an ger
 Ar m
um a
int endo
 s oph
 O K
 H D
u ce
og a
ener ation
app y
 prep are
 O tt
 H or
 h ook
 ex ceed
 dist urb
 Columb ia
et ts
 sens itive
 review s
 k m
 fear s
 N avy
w rit
 suspect ed
 brother s
" ,"
 advoc ates
ut ed
 sm ooth
 purch ased
 entertain ment
 emb arrass
 V ancouver
 Port land
um er
rop ri
ian o
 except ion
 N ext
m ate
Sc ript
Rel ated
 respect ively
 ext end
 controvers y
rat ors
 Den ver
! )
 c rop
 N AT
u per
t hen
it i
 const itutional
 O N
omm od
j o
el and
 upgr ade
 t one
 produ cing
R uss
 view ed
 test im
 inc ent
 g ear
 f ulf
 cont ribute
ach us
 ser ves
 overwhel ming
 hom eless
 Lat in
 attack ing
ivers ary
 sh ame
 involve ment
 f ab
 L uc
 J ay
 H ind
d es
 score s
 un ex
ult ural
az z
 sal ary
 represent ative
 cann abis
 En vironment
 D ig
 B h
am ac
 dynam ic
 A ction
 t ail
 pe ak
 ground s
Ù 
c a
 dram atic
 Gold en
 D id
+ +
 throw ing
we red
G O
 desc ription
m ad
 per pet
 count s
 offic es
 invol ves
 Rep ort
W ill
 How ard
m ission
 elect ronic
 b ureau
 P ent
te xt
 refer ring
 r if
 Hist ory
R L
 S uch
w orth
' .
 dep ression
 N ever
ict ions
 p uzz
 h ang
 ex ternal
 dis rupt
 br ill
 att itude
v ision
og s
 norm ally
 list ening
 Dis ney
 stay ed
 recomm ended
 month ly
 medic ine
 investig ating
 S at
ge on
ann els
 ign ore
 fr ag
 199 6
< /
 connect ions
 al ter
 acc us
ph ones
d ney
 enorm ous
 ast ron
 r ational
 public ation
 Penn sylvania
 est imate
 F A
 Arab ia
u its
er ia
ac on
ac co
 eff iciency
 Squ are
 C leveland
  Ø
achus etts
 langu ages
 b ail
ir a
 virt ually
 stat istics
 r aw
 Rev olution
 L y
 C ode
ro t
ht ml
P P
 qu ote
 lic ens
 st upid
 sam ples
 in ject
 Que en
 Har ris
 su gar
 men u
 cas ual
 L ist
 J ac
olog ists
8 5
 m arch
c ore
 suff er
 liqu id
 am id
 ab st
 Walk er
 E xt
 aff airs
 R oy
 P itt
ect ive
 princ ip
 con ce
 adm it
it o
ir y
S I
 B ad
f are
 sc reens
 person ality
 h int
c ase
S D
 y ellow
 temper atures
 low est
 hol iday
nd um
ition ally
h our
d s
ann on
 s alt
 rank ed
 aut hent
 All en
ol ph
iver pool
igr ant
 rem arks
 acc ommod
 Bro ther
 199 7
sen al
amac are
Bl ack
 orig in
 ing red
ra pped
 j ur
 R and
ã ®
m ary
 fl ash
 Ok lahoma
 M useum
 sur f
 pres um
 pl ain
 implement ed
 Prof essor
C T
 visit ors
 un ions
 s orry
 r om
 l uck
 f iscal
 ESP N
 r ural
 p ump
 over t
 head ing
un es
C he
 transport ation
 miss ile
 road s
 AN D
 F ed
W here
 tr ave
 pre ced
 platform s
 ch apter
 He ad
 Al i
y o
es sel
 g athered
 F amily
ut ies
ar ms
B oth
6 9
 terror ists
 strateg ic
 legit imate
 encour aged
 attempt ing
 5 3
l ad
ab et
G E
 i P
 f ro
 con sole
c ut
 Me an
ð 
 w aves
 should er
 seem ingly
 g rav
 bo at
 ar r
 R ef
 Ont ario
 M ah
 II I
ag ic
New s
F F
 st y
 se vent
 investig ate
 Tr ade
 r aces
 d a
 co vers
. -
 ob tain
 d rew
k ing
 te a
 cl osing
 cl im
Ä 
th on
ab eth
 cele b
 C re
 univers ities
 ball ot
co ver
 res ign
 leg s
 Commun ity
H er
 pract ical
 improve ment
 Turk ish
y stem
8 7
8 00
hel sea
 h am
 br anch
rat or
 appreci ate
p ed
inc luding
d on
 t asks
 dep os
 conspir acy
 care ful
 B uff
 Ill inois
 f oss
ì 
 tweet ed
 m o
 guarant ee
ot hing
b i
Ar t
 hand ed
 M aster
 B a
 tom orrow
 prov iders
ri ors
cl aim
 f iring
 H ard
 Ch air
 dep ends
 consist ently
 St at
 B rew
ien ces
 sett lement
 convers ations
 R a
 r het
 discuss ions
 dis order
 R en
 Mass achusetts
 dr ama
b n
 re vel
 Int elligence
ak a
 ign ored
 hor ror
 com pe
 With out
 N C
 Co oper
 mist akes
 Mc K
port ed
av al
Wh o
 ser vers
 reg ister
 port ray
ed ing
 susp ended
 inc idents
 dist ract
 Guard ian
 C ore
ple te
H T
 rel iable
 phr ase
 over s
 extra ord
 entit led
 Net flix
 Br idge
ie re
 opin ions
 F reedom
h ot
 sp aces
 mar ks
 d ub
 U se
 In formation
S te
 repl ied
 Che ck
 th rew
 dis pl
 demonst rated
 Haj ime
Ã ±
z ed
iv als
 s in
 pass engers
re ts
R ef
 capt ain
ib an
 read s
 mount ain
 def icit
 Ind eed
 lay er
 gr id
 activ ist
 U r
 Mat thew
nt il
ec ut
 g ains
our se
 in equ
 U FC
am med
 m un
 impro ving
 Techn ology
 5 1
ific ial
S C
 h ockey
 acqu ired
 N OT
sc ale
# #
 tw enty
 tri es
 land scape
 Un fortunately
m at
 not ing
 jud ges
 Camer on
ap ing
 T ri
 univers al
 abs ence
 199 5
er ies
" )
 m ad
 ins isted
 contribut ions
oun ce
 Wh ich
 G un
in ch
 object ive
 Kenn edy
omp son
 sequ ence
 r anks
 jo ke
 G ulf
 Bern ie
v ard
P lease
 break s
ut en
on ly
is p
7 2
 restaur ants
 predict ed
 liter ature
 fail ing
 ex ch
 l ucky
 common ly
 W W
 M ake
 K ansas
 I ppo
 n a
 h ung
 I ce
 Conserv ative
ih ad
iet ies
 us age
 leg acy
 a x
 N intendo
ing ton
A ss
 investig ators
h op
 sa ving
 high lights
 cover ing
 De ath
i ate
 spokes person
 prot ocol
 equ ality
 dismiss ed
pl us
ap olis
 vir us
 refere ndum
 Veg as
 Sh are
 N iger
 f ighter
ij ing
h igh
 m ice
 critic ized
 ins ist
 Ph oenix
ke ep
 sett ings
 rac ism
 document ary
 co aches
 B attle
http s
S en
 p orn
 hor se
 Get ty
  %
7 3
 viol ation
 rat ings
 fant astic
 div ided
V E
 wat ers
 cent ers
 Mex ican
ty pe
et ers
 l ands
 fall s
 earth qu
 com edy
 ch annels
 Bro ad
 B ible
 B all
ic ism
 Ex pl
 vot er
 sil ver
 mil k
 acknowled ged
 J enn
ugh t
7 9
 rat io
 ne ck
 e uro
 Sy dney
 N one
 track ing
 partners hip
 appro ached
 P res
Dav id
6 00
 civil ians
 bu ff
 act ors
 respons es
 prof its
 perform ing
 n aturally
 ass igned
 P ass
 E ag
 fact ory
 Pat ri
 C ook
 199 4
 pet ition
 ob s
 instru ment
 employ ed
 cap abilities
 Aust in
he im
 mon itor
w as
it ter
 vis iting
 tri als
 trans actions
 hop ed
 Viet nam
 H ospital
F l
 stud ied
 Rober ts
 che cks
 abandon ed
 K at
 ( â
 fore st
 adv enture
 L as
 Associ ated
arg o
ab e
 fund ed
 ent r
 e c
 X box
St ill
 sh it
 l ocked
 P op
Ã³ n
R S
 hand ling
 ent reprene
 And erson
iz abeth
 sw ing
 S amsung
 Pro p
 K ar
oc ument
 sm ell
 address ed
back s
aed a
V P
 j oy
 St art
" .[
 j un
 c ust
 Be ck
 A p
 â 
 w rest
 tact ics
 suppl ies
 - >
pl ed
 V ill
 Atlant ic
z ing
ord on
 scient ist
 in ner
 c ow
 W ik
 D O
 Ch ron
 st ake
 sh out
 r amp
 pre f
 meas ured
 innov ation
  ×
en h
 let ting
 S ony
g us
 st one
 prom ises
ir ts
 when ever
 st olen
 playoff s
 monit oring
 d iverse
 Spr ing
d it
ct r
 sy mp
 rook ie
 ord inary
 mid field
 f ruit
 D ata
B ack
 mus ical
 sub scrib
 replace ment
 read er
 h ip
 assess ment
Å 
 sen ator
 but t
 B ureau
yn ch
 mat hem
 War ren
b ered
P ost
 nom ination
P art
 s orts
 Scott ish
 Phot os
 Miss iss
f r
ak i
Y our
C ons
 spokes woman
 second ary
 A cc
m ans
 min istry
 H a
tr ans
 war n
 Y eah
 Mars h
 Iraq i
 H o
u h
 the at
 le ts
 Ob amacare
 F riend
A F
6 3
 ch at
the y
 for cing
 accompl ish
 B ron
or gan
 war rant
 enc ounter
 ass ign
 arg ues
 Ab b
in ction
com es
 dist ributed
 Tal iban
 M oon
 A ge
sh ire
j an
ag h
 represent ing
 program me
 introdu ce
 different ly
 T ro
 St adium
 â ¬
 t ips
 d ates
 W olf
or ous
it age
ater al
Th ough
 qu oted
 U lt
 A z
d ri
c rib
6 1
 main tained
 dro ve
 convention al
 b ars
 aut o
il a
 man ifest
 m aps
x it
pl ate
en cing
 tem porary
 congress ional
 block ed
 t iss
 no ise
 gu itar
 dead ly
 C arter
p ack
ar ity
 arri ve
 G aza
ï¿ ½
qu est
cept ions
 important ly
 bar rel
 Jon athan
ound ing
 c ul
 sp oken
 soc cer
 sil ence
 polit ically
 cop ies
 Sar ah
 we igh
 sm oking
 pop ulations
 lo ans
 athlet es
m ade
 sure ly
 re vers
 Just in
se ction
 ur ged
 ton ight
 introdu ction
 cons ent
um in
P re
 sw im
 lob by
 hy per
 dr one
ib l
 trig ger
 t ie
 subm itted
 sho pping
 b ot
 Do es
st ep
i y
 l ying
 bon us
j ud
 se ar
 rel ax
 gu est
 W as
 NAT O
 L iverpool
 D er
ass ador
 i OS
 head quarters
 experim ents
F acebook
 wealth y
 stre aming
 health care
 focus ing
20 15
 Con nect
 C ow
Ð ¼
ri ent
od ed
f und
Y et
AN D
 threat ening
 st ages
 par alle
 f estival
 bl ast
 Ut ah
 S us
 Cont rol
 sem i
 C ost
oty pe
es see
em ed
 pre par
 f ur
 celebr ate
 Pl us
 C H
 A st
or able
 week ly
 odd s
 S ometimes
 Mar vel
 popular ity
 G irl
 B ra
y er
ipp i
S E
 wind ows
 protect ing
 circ le
 abs or
 C reat
6 2
 t ape
 ro of
 kn ee
 beaut y
 P A
 D ream
 Cor por
is ons
R C
 hy dro
 cl ock
 T rib
 D ave
 brill iant
 appear ances
 J am
un ity
room s
pt on
p ie
ah u
 spirit ual
 purs ue
 help ful
 Gree ce
vern ment
the less
old s
at ar
ak h
 w ider
 out rage
 innoc ent
 gu ards
 creat ures
 K ong
 B on
 propos als
 newslet ter
 dise ases
 M ill
 M ORE
 Be ijing
 Ar k
 20 20
aw are
 smart phone
 re nder
 conserv atives
 comp are
 D utch
 veter ans
 act ively
 Comm on
ir lf
ial s
b ow
 surv ival
 m igrants
 demonst rate
 demand ing
 aut onom
 A k
 room s
 re verse
 arg uing
 appoint ed
 afford able
 N ev
 L ow
th rough
 un pre
 lab our
 kil omet
 bro wn
ri k
igen ous
 rec all
 Lew is
om es
irlf riend
Re uters
 so il
 dom ain
it ary
e als
av ed
 h ire
ï ½
Ch rist
 question ed
 mus cle
 ann iversary
iz er
 r ush
 p icks
 fore cast
he ld
 th orough
 t ens
 investig ations
 d ying
 c ro
 Indian a
usal em
arch y
E l
 mem o
Ñ 
 tr illion
 testim ony
 egg s
 des erve
 R oss
 Mean while
 G ard
mark et
 prosecut ors
 l ux
 Th ompson
m ony
G A
 ag es
 Lib ya
 Iran ian
 Cr ime
 5 7
 ac id
 A I
or ious
 o kay
 arri val
 T ok
ult ane
 phenomen on
 meaning ful
 ex it
 S ab
 Mar ine
 M un
 Eng ine
ecut ive
br idge
 rele ases
 F orm
 w ounded
 w ine
 w edd
 ar bit
 Int el
 Am ong
o is
 retire ment
 lo ose
 an s
eder ation
 sub sc
 sign ature
 T en
 H ur
 Co le
 st ability
 class ified
 can ce
re ction
ors hip
 target ing
 d ust
 Emp ire
ocol ate
St ory
 spe ll
 Pr ice
 Mr s
 G raham
8 4
 st em
 point ing
 broad er
yl um
en ess
 l os
 S et
 B ase
Cl ick
 open ly
 den y
 Mor gan
ber ry
m ers
A re
 trans it
 min i
 bu ck
 bott le
et he
S im
 h al
ll a
anc er
9 3
 g if
 coll aps
 but ter
 ab ilities
 H on
min ute
l ined
 sett led
 Gal axy
opy right
m Ah
F A
 trem end
 pass age
 organ ic
 great ly
 design s
 F al
 satell ite
 request ed
 pres idency
 pers u
 marg in
 F all
 5 4
ol ves
P M
 p atch
 f ool
 C helsea
iam ond
ath on
 gener ations
 fl ags
 Y an
el a
R ed
 d ump
 T oy
 Sil ver
 M ach
 where as
 strugg led
 don ations
 def ending
port ation
 sc ope
 l ad
 kn ife
 d ad
 crit eria
 comprehens ive
 am endment
 B oe
ced ented
St ep
9 4
 sh adow
 hyp othes
ish op
con f
ab ies
 u pload
 g ig
Ð ²
est y
 want ing
 sh irt
 sav ings
 ex ha
 Man agement
ent er
T E
 h osp
 c oc
 breat h
 W H
 De b
ig ious
 rock et
 pers ons
 expand ing
 enthus i
 child hood
 architect ure
 Te le
 Cl ark
 jud gment
 assum ed
 Mar x
ri or
D em
 reb els
 gen re
om ed
ing ers
 miss ions
 b owl
 b orders
a uthor
AT CH
 S a
 re ar
 prote in
 al arm
 V ice
il ation
ge red
g age
ack et
 subst ance
 form ation
 Le on
Ñ 
enn is
 super ior
 inc hes
 L ink
 I ron
ar ia
 stay ing
 st ere
 prov ision
 produ cers
 capital ism
 a er
 And re
og y
e h
 â 
 e ase
 B urn
ik a
B M
 tit led
 ste pped
 dri ves
 cons ensus
 Alex ander
Â ·
9 2
 sm ile
 round s
 g ross
 co inc
 cl othing
 bank ing
 Mary land
** *
 therap y
 hop efully
 g ent
 compet ing
 Liber al
 Jer usalem
m ic
b its
S U
 v ig
 strik ing
 l unch
 back ing
s es
W atch
 s ed
 prep aring
 attract ive
ut iny
af e
 v essel
 to xic
 members hip
 award ed
e ven
ass y
 b urning
 L ibrary
 Bar b
in stein
ad ers
O K
ER E
 remark able
 ab road
ou ri
 kill er
 f ate
 Govern or
ore t
con st
b ing
a fter
 Y OU
 Medic are
 Har vard
th ood
 t ables
 resc ue
 ans wered
 A ud
ro ph
land o
it ol
 reve als
 hor r
 fund ra
 char ity
 anx iety
 B enn
 1 20
 ) ;
 discuss ing
 T ed
 Pri v
 M ess
 9 5
as ury
 unf air
 unex pected
 spect rum
 grad uate
 follow ers
 c ig
 S ix
 E ff
f ol
 n ic
 g al
 b read
 H old
ch ild
 strateg ies
 S on
 M LS
ik h
C omp
 repe at
 St ation
 I v
 5 6
iff s
Go ogle
 ob sc
 Tenn essee
t est
ar ation
 under lying
 elig ible
 As sembly
N BC
 ass ass
 H op
 Cap ital
 C redit
 Ber lin
er g
a ver
 represent atives
 kit chen
 dist ingu
 consider ation
 com ics
 Te ch
 sp ots
 ins pect
 inf o
 t ons
 r iding
 psych iat
 manufacture rs
 Se an
 Ex per
  ).
s ome
orm al
iz za
K e
 pr on
 enh ance
 dis h
 cere mony
 P D
â  â 
s ub
ast y
 cal m
 Th rough
 R os
 P ant
 v end
 tem por
 analy st
 aim s
 stud ying
 legisl ative
 impl ications
 every day
 clin ical
 St ore
br id
8 2
7 1
 P erson
vertise ments
r ace
 t ut
 par ad
 int im
 execut ives
 L t
 L ions
 G h
 El izabeth
ig ate
T R
C O
 cogn itive
 che st
 Pr ince
 creat ure
play er
part y
om y
ct ic
b ury
al ysis
 st ance
 sim ultane
 poss ess
 n ose
 comp at
 D al
c est
 t ired
 ph arm
 n erv
 m useum
 employ ers
 J ere
ond er
d y
 harass ment
 cooper ation
 R un
  !
y es
el f
6 50
 qu it
 line up
 cent uries
 exec ution
ten ance
ail ed
 viol ations
 var iable
 promot ing
 collabor ation
 ch icken
 H ave
 journal ism
 err ors
 cre am
 bul let
 be ating
 Anton io
 psych ological
 l es
 B al
ot ing
oc ial
am ous
 Ed ward
el le
alt ies
ag a
 inter action
 fac ilit
 cont ribution
 Rep resent
 G il
 se ctions
 pro s
 prefer red
 disp ute
 Ad v
r ac
m ind
aff e
 p a
 foss il
 Swed en
 H ong
um ble
ro ck
ra ig
p ress
it ure
d ed
 phys ically
 domin ant
 civil ian
 burd en
 Olymp ic
 J ean
al ia
 suspect s
 prom ising
 princip al
 m it
 dam aged
 S om
 Mississ ippi
 Inst agram
 E C
ut ter
 per ceived
 difficult y
 categ ories
 Le ader
icip al
 surv iv
 f et
 Bat man
 she et
 reform s
 mem ories
 Palestin ians
 A ward
is a
 man aging
 demand ed
 T es
 B arn
 invest ments
 expl aining
 access ible
we ek
lic op
in th
d ated
A ct
 instruct ions
 in du
 Bru ce
 6 1
w alk
F i
 st ored
 pick ing
ier ce
 the ories
 res erved
 overse as
 m ole
 ide ology
 fight s
 de lic
 Or ig
 D a
est yle
---------------- ----------------
 host ed
 W ales
 Pent agon
 p ill
 gr ade
 St ory
 H al
od ge
 regul atory
 p m
 des ert
sec urity
ades h
M ich
 under t
 m ood
 emer ging
 Har per
end ar
 proced ure
 Em ail
  _
( "
 se ed
 Ste am
 Hit ler
ic ity
act s
ov a
h ard
em ic
 l apt
 Rob inson
 R ather
ne cess
 s its
 land ing
 l ens
 he licop
 Del hi
 19 50
w ed
bour ne
 out lets
 indic ates
M s
 ridic ulous
 S ection
ix ed
